#ifdef PREDICTION_MODE
unsigned char tflite_models_temperature_model_tflite[] = {
  0x20, 0x00, 0x00, 0x00, 0x54, 0x46, 0x4c, 0x33, 0x00, 0x00, 0x00, 0x00,
  0x14, 0x00, 0x20, 0x00, 0x1c, 0x00, 0x18, 0x00, 0x14, 0x00, 0x10, 0x00,
  0x0c, 0x00, 0x00, 0x00, 0x08, 0x00, 0x04, 0x00, 0x14, 0x00, 0x00, 0x00,
  0x1c, 0x00, 0x00, 0x00, 0x7c, 0x00, 0x00, 0x00, 0xd4, 0x00, 0x00, 0x00,
  0xc0, 0x0c, 0x00, 0x00, 0xd0, 0x0c, 0x00, 0x00, 0xb0, 0x21, 0x00, 0x00,
  0x03, 0x00, 0x00, 0x00, 0x01, 0x00, 0x00, 0x00, 0x04, 0x00, 0x00, 0x00,
  0x22, 0xf1, 0xff, 0xff, 0x0c, 0x00, 0x00, 0x00, 0x1c, 0x00, 0x00, 0x00,
  0x34, 0x00, 0x00, 0x00, 0x0f, 0x00, 0x00, 0x00, 0x73, 0x65, 0x72, 0x76,
  0x69, 0x6e, 0x67, 0x5f, 0x64, 0x65, 0x66, 0x61, 0x75, 0x6c, 0x74, 0x00,
  0x01, 0x00, 0x00, 0x00, 0x04, 0x00, 0x00, 0x00, 0xa0, 0xff, 0xff, 0xff,
  0x1b, 0x00, 0x00, 0x00, 0x04, 0x00, 0x00, 0x00, 0x03, 0x00, 0x00, 0x00,
  0x6f, 0x75, 0x74, 0x00, 0x01, 0x00, 0x00, 0x00, 0x04, 0x00, 0x00, 0x00,
  0x22, 0xf1, 0xff, 0xff, 0x04, 0x00, 0x00, 0x00, 0x07, 0x00, 0x00, 0x00,
  0x69, 0x6e, 0x70, 0x75, 0x74, 0x5f, 0x31, 0x00, 0x02, 0x00, 0x00, 0x00,
  0x34, 0x00, 0x00, 0x00, 0x04, 0x00, 0x00, 0x00, 0xdc, 0xff, 0xff, 0xff,
  0x1e, 0x00, 0x00, 0x00, 0x04, 0x00, 0x00, 0x00, 0x13, 0x00, 0x00, 0x00,
  0x43, 0x4f, 0x4e, 0x56, 0x45, 0x52, 0x53, 0x49, 0x4f, 0x4e, 0x5f, 0x4d,
  0x45, 0x54, 0x41, 0x44, 0x41, 0x54, 0x41, 0x00, 0x08, 0x00, 0x0c, 0x00,
  0x08, 0x00, 0x04, 0x00, 0x08, 0x00, 0x00, 0x00, 0x1d, 0x00, 0x00, 0x00,
  0x04, 0x00, 0x00, 0x00, 0x13, 0x00, 0x00, 0x00, 0x6d, 0x69, 0x6e, 0x5f,
  0x72, 0x75, 0x6e, 0x74, 0x69, 0x6d, 0x65, 0x5f, 0x76, 0x65, 0x72, 0x73,
  0x69, 0x6f, 0x6e, 0x00, 0x1f, 0x00, 0x00, 0x00, 0xe8, 0x0b, 0x00, 0x00,
  0xe0, 0x0b, 0x00, 0x00, 0xcc, 0x0b, 0x00, 0x00, 0xb8, 0x0b, 0x00, 0x00,
  0xa4, 0x0b, 0x00, 0x00, 0x90, 0x0b, 0x00, 0x00, 0x88, 0x0b, 0x00, 0x00,
  0x70, 0x0b, 0x00, 0x00, 0x5c, 0x0b, 0x00, 0x00, 0x44, 0x0b, 0x00, 0x00,
  0x14, 0x0b, 0x00, 0x00, 0x84, 0x0a, 0x00, 0x00, 0x34, 0x0a, 0x00, 0x00,
  0x24, 0x06, 0x00, 0x00, 0xd4, 0x05, 0x00, 0x00, 0xc4, 0x01, 0x00, 0x00,
  0x34, 0x01, 0x00, 0x00, 0xe4, 0x00, 0x00, 0x00, 0xdc, 0x00, 0x00, 0x00,
  0xd4, 0x00, 0x00, 0x00, 0xcc, 0x00, 0x00, 0x00, 0xc4, 0x00, 0x00, 0x00,
  0xbc, 0x00, 0x00, 0x00, 0xb4, 0x00, 0x00, 0x00, 0xac, 0x00, 0x00, 0x00,
  0xa4, 0x00, 0x00, 0x00, 0x9c, 0x00, 0x00, 0x00, 0x94, 0x00, 0x00, 0x00,
  0x8c, 0x00, 0x00, 0x00, 0x6c, 0x00, 0x00, 0x00, 0x04, 0x00, 0x00, 0x00,
  0x12, 0xf2, 0xff, 0xff, 0x04, 0x00, 0x00, 0x00, 0x58, 0x00, 0x00, 0x00,
  0x0c, 0x00, 0x00, 0x00, 0x08, 0x00, 0x0e, 0x00, 0x08, 0x00, 0x04, 0x00,
  0x08, 0x00, 0x00, 0x00, 0x10, 0x00, 0x00, 0x00, 0x28, 0x00, 0x00, 0x00,
  0x00, 0x00, 0x06, 0x00, 0x08, 0x00, 0x04, 0x00, 0x06, 0x00, 0x00, 0x00,
  0x04, 0x00, 0x00, 0x00, 0x01, 0x00, 0x00, 0x00, 0xeb, 0x03, 0x00, 0x00,
  0x00, 0x00, 0x0a, 0x00, 0x10, 0x00, 0x0c, 0x00, 0x08, 0x00, 0x04, 0x00,
  0x0a, 0x00, 0x00, 0x00, 0x02, 0x00, 0x00, 0x00, 0x02, 0x00, 0x00, 0x00,
  0x04, 0x00, 0x00, 0x00, 0x06, 0x00, 0x00, 0x00, 0x32, 0x2e, 0x31, 0x31,
  0x2e, 0x30, 0x00, 0x00, 0x76, 0xf2, 0xff, 0xff, 0x04, 0x00, 0x00, 0x00,
  0x10, 0x00, 0x00, 0x00, 0x31, 0x2e, 0x31, 0x34, 0x2e, 0x30, 0x00, 0x00,
  0x00, 0x00, 0x00, 0x00, 0x00, 0x00, 0x00, 0x00, 0xf8, 0xe0, 0xff, 0xff,
  0xfc, 0xe0, 0xff, 0xff, 0x00, 0xe1, 0xff, 0xff, 0x04, 0xe1, 0xff, 0xff,
  0x08, 0xe1, 0xff, 0xff, 0x0c, 0xe1, 0xff, 0xff, 0x10, 0xe1, 0xff, 0xff,
  0x14, 0xe1, 0xff, 0xff, 0x18, 0xe1, 0xff, 0xff, 0x1c, 0xe1, 0xff, 0xff,
  0x20, 0xe1, 0xff, 0xff, 0xbe, 0xf2, 0xff, 0xff, 0x04, 0x00, 0x00, 0x00,
  0x40, 0x00, 0x00, 0x00, 0x46, 0x7f, 0x5a, 0x81, 0x62, 0x81, 0xa8, 0x7f,
  0xef, 0x7f, 0x09, 0x81, 0x5b, 0x7f, 0x9d, 0x7f, 0x6d, 0x81, 0x5e, 0x81,
  0x0d, 0x81, 0x65, 0x81, 0xb7, 0x7f, 0xce, 0x7f, 0x0c, 0x81, 0x9b, 0x7f,
  0x7f, 0x44, 0xf7, 0x7f, 0x49, 0x81, 0x5f, 0x81, 0xb5, 0x81, 0x42, 0x81,
  0xb5, 0x7f, 0xab, 0x7f, 0xa0, 0x7f, 0x12, 0x81, 0x6f, 0x81, 0x5c, 0x81,
  0x5a, 0x81, 0x11, 0x7f, 0x53, 0x81, 0x6b, 0x81, 0x0a, 0xf3, 0xff, 0xff,
  0x04, 0x00, 0x00, 0x00, 0x80, 0x00, 0x00, 0x00, 0x58, 0xae, 0xff, 0xff,
  0x46, 0xf7, 0xff, 0xff, 0x2b, 0xf8, 0xff, 0xff, 0x92, 0xf9, 0xff, 0xff,
  0xa8, 0xc8, 0xff, 0xff, 0x6c, 0xd7, 0xff, 0xff, 0x70, 0xc1, 0xff, 0xff,
  0xdf, 0xe4, 0xff, 0xff, 0x37, 0xe9, 0xff, 0xff, 0x3c, 0xff, 0xff, 0xff,
  0xfe, 0xd3, 0xff, 0xff, 0x90, 0xfe, 0xff, 0xff, 0x2c, 0xfd, 0xff, 0xff,
  0xb8, 0xe9, 0xff, 0xff, 0xd5, 0xd5, 0xff, 0xff, 0x3c, 0xe7, 0xff, 0xff,
  0x4b, 0xb6, 0xff, 0xff, 0xc5, 0xe1, 0xff, 0xff, 0x7d, 0x00, 0x00, 0x00,
  0xd2, 0xfe, 0xff, 0xff, 0xa8, 0xbe, 0xff, 0xff, 0x1d, 0xe8, 0xff, 0xff,
  0x8b, 0xfd, 0xff, 0xff, 0x4c, 0xfd, 0xff, 0xff, 0x92, 0xe3, 0xff, 0xff,
  0x89, 0xda, 0xff, 0xff, 0xd5, 0xe8, 0xff, 0xff, 0xa8, 0xfe, 0xff, 0xff,
  0x8c, 0xfa, 0xff, 0xff, 0xfb, 0xeb, 0xff, 0xff, 0x84, 0xf9, 0xff, 0xff,
  0x15, 0x00, 0x00, 0x00, 0x96, 0xf3, 0xff, 0xff, 0x04, 0x00, 0x00, 0x00,
  0x00, 0x04, 0x00, 0x00, 0x01, 0x02, 0xfe, 0x05, 0x06, 0xec, 0x0e, 0x10,
  0x09, 0x05, 0xed, 0x03, 0x05, 0x13, 0x10, 0x12, 0xe6, 0xf9, 0x07, 0x08,
  0x0c, 0x09, 0x06, 0xfc, 0x06, 0x21, 0x05, 0x02, 0x0f, 0x0a, 0x04, 0x08,
  0xb8, 0x47, 0x45, 0xe6, 0xdb, 0x0c, 0xd1, 0x43, 0xb1, 0x2b, 0x30, 0x13,
  0xee, 0xef, 0x3e, 0x7f, 0xcc, 0xc0, 0x23, 0x1f, 0x15, 0x39, 0xfc, 0xf1,
  0x6a, 0x04, 0xae, 0x15, 0x1d, 0xdb, 0x39, 0x38, 0xf2, 0x2b, 0x05, 0xf7,
  0xfb, 0x05, 0xc6, 0x52, 0xf8, 0xed, 0x20, 0x16, 0xfc, 0x04, 0x28, 0x6d,
  0xdb, 0xe9, 0x09, 0x1f, 0x35, 0x00, 0xfe, 0x07, 0x5f, 0x02, 0xdd, 0x06,
  0xfe, 0xff, 0x08, 0x06, 0x5e, 0xea, 0xa9, 0x31, 0x51, 0xbd, 0x16, 0x95,
  0x56, 0xe1, 0xfc, 0xe0, 0x18, 0x7f, 0xc7, 0xa7, 0x57, 0x36, 0xf9, 0xbe,
  0xfc, 0xd3, 0x23, 0x0e, 0xf3, 0xc3, 0x7c, 0xc8, 0xc9, 0x1e, 0xbf, 0xd6,
  0x22, 0x1c, 0xd9, 0x12, 0x05, 0x18, 0x03, 0xfa, 0x3b, 0x02, 0x07, 0xf4,
  0xf8, 0x22, 0x08, 0xd5, 0x0a, 0x10, 0xfb, 0xfd, 0x0e, 0xf6, 0x02, 0x0a,
  0x1f, 0x17, 0x09, 0xf5, 0xe4, 0xee, 0xe8, 0x05, 0x3b, 0xbe, 0xbe, 0x36,
  0x36, 0xc4, 0x2b, 0xd0, 0x7f, 0xf8, 0xba, 0xe5, 0x17, 0x48, 0xae, 0x8d,
  0x2e, 0x4b, 0xe4, 0xcf, 0x11, 0xd7, 0x10, 0x1f, 0xe2, 0xfc, 0x52, 0xc4,
  0xe2, 0x15, 0xb7, 0xe9, 0xe8, 0x04, 0x1b, 0xe4, 0x1b, 0xfe, 0xbb, 0x29,
  0xca, 0x0f, 0xf4, 0x12, 0xe8, 0xee, 0x11, 0x18, 0xe1, 0x2a, 0x0d, 0x07,
  0xf0, 0x17, 0xf3, 0xfa, 0x3a, 0xf1, 0xe8, 0x12, 0x04, 0xce, 0xef, 0x0d,
  0x91, 0x44, 0x05, 0xff, 0x13, 0x30, 0xb0, 0x77, 0x1f, 0xfb, 0x28, 0x26,
  0xf6, 0x17, 0xfa, 0x56, 0x81, 0xfc, 0x20, 0x44, 0x3a, 0x65, 0xea, 0xea,
  0x55, 0x1a, 0xb8, 0x25, 0x21, 0x87, 0x32, 0x1b, 0xfb, 0x02, 0xff, 0x00,
  0xc5, 0x27, 0x01, 0x15, 0x08, 0x0c, 0x2d, 0xf1, 0x18, 0xf0, 0x27, 0xdb,
  0xf2, 0xf0, 0x07, 0xed, 0x20, 0x2a, 0x0d, 0x07, 0x13, 0x2b, 0xff, 0xea,
  0xf7, 0xfa, 0x07, 0xf9, 0xa2, 0xd8, 0xcd, 0xf0, 0x83, 0xf4, 0xed, 0x1f,
  0x7f, 0xd1, 0xe6, 0xd5, 0x0a, 0xb7, 0xe5, 0x28, 0xc2, 0xbb, 0xe7, 0xdd,
  0xe5, 0xe2, 0xfc, 0xf5, 0x2f, 0xda, 0x69, 0xdf, 0xc5, 0x0f, 0xde, 0xcf,
  0x20, 0xff, 0xfa, 0xe5, 0x29, 0xc3, 0x03, 0x16, 0xe3, 0x1a, 0xfa, 0xfc,
  0xf4, 0x19, 0x01, 0x01, 0xd6, 0xef, 0xfe, 0x05, 0xf7, 0xc4, 0xfc, 0xf2,
  0x16, 0xf0, 0x0b, 0x0a, 0x09, 0xeb, 0xec, 0xfd, 0xd1, 0x46, 0x7f, 0xe8,
  0xbe, 0x10, 0xad, 0x73, 0xa7, 0x19, 0x11, 0x1f, 0xee, 0x0e, 0x1f, 0x67,
  0xc1, 0xa1, 0x08, 0x3f, 0x14, 0x3b, 0xf2, 0xe4, 0x4e, 0x36, 0xc5, 0x2f,
  0x2f, 0xb1, 0x41, 0x35, 0x22, 0x0a, 0xf2, 0x1c, 0xed, 0xf0, 0x12, 0xf4,
  0x03, 0xee, 0x1b, 0x11, 0xe5, 0xe3, 0x11, 0x24, 0xdd, 0x05, 0x0b, 0x03,
  0xfb, 0xff, 0xed, 0xf2, 0xf2, 0xdd, 0x2d, 0xff, 0xf1, 0x09, 0xf0, 0xf3,
  0x81, 0x05, 0x12, 0xf7, 0xa8, 0x19, 0xaa, 0x5f, 0xd8, 0x1e, 0x4e, 0x19,
  0xd6, 0x2a, 0x6c, 0x2a, 0xd2, 0x11, 0x25, 0x0b, 0x7a, 0x34, 0xf7, 0xdb,
  0x3d, 0x64, 0xb9, 0xf4, 0x03, 0x95, 0xff, 0x20, 0xc1, 0xfd, 0x0b, 0x00,
  0xc5, 0xf9, 0xec, 0xef, 0xf8, 0x13, 0xf1, 0x08, 0xff, 0xed, 0xf3, 0x0f,
  0xcb, 0xf2, 0x1a, 0xfe, 0xd8, 0xf4, 0x01, 0x03, 0xed, 0xd7, 0x00, 0x15,
  0xfa, 0x34, 0x0e, 0xff, 0xa5, 0xe6, 0x18, 0xee, 0xb8, 0x8b, 0xe9, 0x0c,
  0xf6, 0x0b, 0x81, 0x22, 0xe4, 0xd5, 0x84, 0x2c, 0xaf, 0xd1, 0x0a, 0xff,
  0xbc, 0xf5, 0xe1, 0xe6, 0x1d, 0x8b, 0x1b, 0x05, 0x04, 0x1b, 0xe6, 0x09,
  0xda, 0x1b, 0xdd, 0x07, 0x0c, 0xf6, 0xf0, 0x3e, 0xf0, 0x0e, 0x12, 0x06,
  0xfc, 0x1e, 0x23, 0x32, 0xd9, 0x2a, 0x18, 0x0e, 0x2d, 0x03, 0x01, 0xf6,
  0x2f, 0xf5, 0x17, 0xf5, 0xf1, 0x04, 0xf5, 0xfb, 0x26, 0xbe, 0xdb, 0x48,
  0x3e, 0xb5, 0x1a, 0x20, 0x7f, 0xf9, 0xde, 0xe8, 0x0b, 0x23, 0xa1, 0xd8,
  0x49, 0x3f, 0x00, 0xe4, 0xd4, 0xbd, 0x15, 0x14, 0xf7, 0xae, 0x6c, 0xec,
  0xe7, 0x1e, 0xbf, 0xdc, 0xfa, 0xf5, 0xf2, 0x09, 0xe0, 0xf6, 0x02, 0xc4,
  0xdc, 0x03, 0x04, 0xfe, 0xfa, 0xd7, 0xf9, 0xb5, 0xee, 0xfe, 0x0f, 0x07,
  0xe3, 0xe9, 0xfd, 0x07, 0xcd, 0x2b, 0x28, 0x08, 0x04, 0x1d, 0xe0, 0xf7,
  0xbb, 0x1b, 0x2d, 0xde, 0x81, 0x2c, 0xcf, 0x28, 0xa7, 0x26, 0x2b, 0x11,
  0xfd, 0x9d, 0x18, 0x2c, 0xcb, 0xd9, 0x0c, 0x10, 0xf8, 0x16, 0xf4, 0xef,
  0x2b, 0x08, 0x9a, 0x30, 0x24, 0xfc, 0x31, 0x2a, 0xdd, 0x07, 0xf8, 0xfb,
  0xdb, 0xfa, 0xdf, 0x00, 0xee, 0xfa, 0x0e, 0x18, 0x02, 0xc8, 0xd1, 0x1f,
  0x0e, 0x16, 0x02, 0x17, 0x02, 0xcf, 0xf5, 0x05, 0xde, 0xff, 0xf7, 0xef,
  0xf9, 0xef, 0x15, 0xff, 0xcc, 0x2f, 0x35, 0xcc, 0xc8, 0x69, 0xe7, 0x3f,
  0xb8, 0x27, 0xfd, 0x14, 0xe7, 0xe9, 0x6f, 0x7f, 0xd7, 0xef, 0x1d, 0x19,
  0x6b, 0x35, 0xe1, 0xe5, 0x6c, 0x5a, 0xd1, 0x14, 0x1a, 0xdd, 0x21, 0x25,
  0x47, 0xfb, 0xfc, 0xef, 0x20, 0xf4, 0x01, 0xf7, 0xf8, 0xec, 0x0c, 0xfc,
  0x0c, 0x09, 0xe9, 0x03, 0xfd, 0x27, 0xe8, 0xe6, 0xe8, 0x1f, 0x04, 0x0b,
  0x23, 0xf7, 0xf5, 0xed, 0xed, 0xe7, 0xf3, 0x00, 0x33, 0xe0, 0xb1, 0x1a,
  0x47, 0xec, 0x34, 0x81, 0x0d, 0xc9, 0xef, 0xcd, 0x12, 0x31, 0xfe, 0x9c,
  0x38, 0x2b, 0xe2, 0xd4, 0xcd, 0xb8, 0x13, 0x0d, 0xba, 0xe0, 0x3f, 0xc2,
  0xdf, 0x12, 0xca, 0xe8, 0x39, 0xe2, 0xf6, 0x04, 0x2b, 0x13, 0xe5, 0xde,
  0x1a, 0xf4, 0xfb, 0x02, 0x20, 0xf4, 0x0e, 0x00, 0x06, 0x09, 0xe6, 0xf1,
  0xfa, 0x0d, 0x16, 0x13, 0xee, 0x0e, 0x0f, 0x04, 0x01, 0xef, 0xf2, 0x02,
  0x27, 0xff, 0xf7, 0x18, 0x20, 0x7f, 0xeb, 0xea, 0xf5, 0xea, 0x57, 0xf2,
  0x28, 0x10, 0x4d, 0xed, 0x1c, 0xf8, 0xf2, 0xe8, 0x50, 0x26, 0x13, 0x15,
  0xeb, 0x50, 0x01, 0xe8, 0xf4, 0x03, 0x0d, 0xed, 0xd8, 0x02, 0xf7, 0xf3,
  0xed, 0x01, 0x01, 0xd9, 0xe6, 0xf2, 0x10, 0xf4, 0x06, 0xe2, 0xf3, 0xf9,
  0xf3, 0x07, 0x04, 0xfa, 0xee, 0xf0, 0x02, 0xfd, 0xce, 0xe2, 0xd6, 0x04,
  0xf7, 0xfb, 0xf3, 0x06, 0xd7, 0x27, 0x33, 0xd6, 0xb8, 0x1d, 0xec, 0x43,
  0x81, 0x06, 0x38, 0x0a, 0xf3, 0xc5, 0x10, 0x49, 0xaa, 0xd6, 0x0d, 0x23,
  0x12, 0x37, 0xf6, 0xf4, 0xf6, 0x31, 0x84, 0x12, 0x17, 0xf2, 0x22, 0x32,
  0x5b, 0xfb, 0x03, 0xf0, 0x2f, 0x00, 0x34, 0xe7, 0xda, 0xff, 0x13, 0xe8,
  0x0c, 0x0e, 0x36, 0x0b, 0x2f, 0xf8, 0xfc, 0xf6, 0x28, 0x14, 0x17, 0x14,
  0xe3, 0x16, 0xe2, 0xfd, 0x0a, 0x1e, 0x1e, 0xef, 0x64, 0xf6, 0xec, 0xf6,
  0x1c, 0xbc, 0x53, 0xc0, 0x20, 0xd0, 0xc4, 0xef, 0x1a, 0x02, 0xcb, 0x81,
  0x5e, 0x3b, 0xee, 0xf6, 0xbc, 0xf9, 0x07, 0x12, 0xcf, 0xe5, 0x23, 0xf7,
  0xec, 0x44, 0xff, 0xe8, 0xee, 0xef, 0x01, 0xf8, 0x0d, 0x18, 0x06, 0xe3,
  0x11, 0x2b, 0x09, 0xf8, 0xf5, 0xfd, 0xf7, 0xec, 0xfe, 0x00, 0x0f, 0xff,
  0x11, 0xdd, 0xf3, 0x03, 0xd9, 0xdb, 0x0e, 0x06, 0x07, 0x12, 0x00, 0x03,
  0xc8, 0x44, 0x21, 0xdf, 0xc0, 0x14, 0xe2, 0x5a, 0xab, 0x29, 0x57, 0x24,
  0xe7, 0xf5, 0x44, 0x7f, 0xdb, 0xea, 0xff, 0x1a, 0x2e, 0x28, 0xe8, 0xda,
  0x20, 0x63, 0xbe, 0x20, 0x2f, 0xd2, 0x26, 0x35, 0xa2, 0xf7, 0xff, 0xff,
  0x04, 0x00, 0x00, 0x00, 0x40, 0x00, 0x00, 0x00, 0x00, 0xff, 0xff, 0xff,
  0x74, 0x00, 0x00, 0x00, 0x33, 0x00, 0x00, 0x00, 0xb8, 0xfd, 0xff, 0xff,
  0x5c, 0x0a, 0x00, 0x00, 0x70, 0x03, 0x00, 0x00, 0xf9, 0x00, 0x00, 0x00,
  0x44, 0xfe, 0xff, 0xff, 0x66, 0xfe, 0xff, 0xff, 0x09, 0xff, 0xff, 0xff,
  0x26, 0x01, 0x00, 0x00, 0xb6, 0x00, 0x00, 0x00, 0x2f, 0xfe, 0xff, 0xff,
  0xf2, 0xfe, 0xff, 0xff, 0xc0, 0x00, 0x00, 0x00, 0x0c, 0xff, 0xff, 0xff,
  0xee, 0xf7, 0xff, 0xff, 0x04, 0x00, 0x00, 0x00, 0x00, 0x04, 0x00, 0x00,
  0x1e, 0xf7, 0xe6, 0x08, 0x0d, 0x0e, 0x06, 0x06, 0xdd, 0x32, 0x00, 0xd3,
  0x0d, 0x1c, 0xf1, 0x03, 0x08, 0xfd, 0xfc, 0x0b, 0xf8, 0x0d, 0x0d, 0x06,
  0xfa, 0x0a, 0x07, 0xff, 0xf5, 0x00, 0xf3, 0x04, 0x2e, 0xd1, 0xcf, 0x09,
  0x04, 0x0d, 0x06, 0x11, 0xe1, 0x44, 0x2a, 0xcb, 0x09, 0x2c, 0xee, 0x20,
  0x0f, 0x05, 0xf1, 0x0c, 0xfb, 0x0d, 0x09, 0xfb, 0x01, 0x02, 0x04, 0xf7,
  0xfa, 0x02, 0xfa, 0x05, 0x0d, 0xe8, 0xf7, 0x16, 0x05, 0x07, 0x0f, 0xe8,
  0x09, 0x0e, 0x13, 0xf3, 0xdc, 0x23, 0xd8, 0x09, 0xfa, 0xfc, 0x0b, 0xf2,
  0x03, 0xfa, 0xf6, 0x0d, 0xff, 0xfb, 0xf3, 0x07, 0xf5, 0x02, 0x06, 0xfc,
  0x29, 0xdb, 0xe9, 0x1a, 0x17, 0x31, 0x23, 0x0d, 0xbd, 0x36, 0x1e, 0xda,
  0xf2, 0x33, 0xdd, 0x0d, 0xfe, 0xfd, 0x02, 0xf9, 0x00, 0xfd, 0xf3, 0x16,
  0x03, 0xfd, 0xfe, 0x07, 0xf2, 0x03, 0x06, 0xfc, 0x02, 0x08, 0x07, 0x04,
  0xf7, 0xff, 0x02, 0x13, 0xf1, 0x08, 0x07, 0xf9, 0xfd, 0xfb, 0xee, 0x0d,
  0xc0, 0x1b, 0x2b, 0xb9, 0x0e, 0xb4, 0xae, 0x02, 0x2c, 0xeb, 0xd5, 0x39,
  0x2c, 0xe4, 0x4a, 0xdb, 0x19, 0xe0, 0xec, 0x11, 0xfa, 0x12, 0x0b, 0x0c,
  0xf6, 0x17, 0x0c, 0xd2, 0x03, 0x00, 0xe6, 0x0e, 0xcc, 0x21, 0x3d, 0xab,
  0x17, 0xc3, 0xc5, 0xfb, 0x18, 0xde, 0xdd, 0x2e, 0x18, 0xdc, 0x4c, 0xd6,
  0x39, 0xf9, 0xdf, 0x40, 0x00, 0x44, 0x4c, 0x54, 0xf6, 0x24, 0x32, 0xc7,
  0xb2, 0x18, 0xbe, 0x63, 0x09, 0xfe, 0xfd, 0x04, 0xf6, 0x06, 0xfe, 0xfe,
  0x02, 0x00, 0x04, 0xfc, 0x03, 0x03, 0x07, 0x04, 0x5b, 0x8b, 0x94, 0x58,
  0x04, 0x58, 0x5a, 0x51, 0xe1, 0x5d, 0x5f, 0x81, 0x92, 0x54, 0xa2, 0x6e,
  0x06, 0xfc, 0xfe, 0xfe, 0xf6, 0x02, 0x02, 0xf8, 0x01, 0x01, 0x03, 0x00,
  0x03, 0xfa, 0xf9, 0x06, 0x0b, 0xf5, 0xf2, 0x0c, 0xee, 0x0e, 0x08, 0x02,
  0xf9, 0x16, 0x08, 0xf0, 0x02, 0x16, 0xf3, 0x12, 0x07, 0x03, 0x00, 0x05,
  0xfc, 0x00, 0xf6, 0x25, 0x04, 0xfb, 0x00, 0xfd, 0xca, 0xf5, 0xf9, 0x0a,
  0x12, 0xe2, 0xe0, 0x11, 0xed, 0x14, 0x11, 0x00, 0xe2, 0x1f, 0x12, 0xe3,
  0x0c, 0x20, 0xe3, 0x14, 0xfd, 0x00, 0xff, 0x05, 0xf4, 0x0b, 0xf0, 0x31,
  0xfc, 0xed, 0xfd, 0xf8, 0xc9, 0xfc, 0xfb, 0x04, 0x16, 0xea, 0xe8, 0x1c,
  0xfb, 0x24, 0x0e, 0x66, 0x20, 0x20, 0x05, 0xcf, 0xa0, 0x0c, 0xd1, 0xf4,
  0xe2, 0x06, 0x09, 0xe7, 0x0c, 0xe7, 0xf9, 0xff, 0x06, 0x0c, 0xee, 0x12,
  0x04, 0xff, 0x07, 0xf9, 0xe8, 0xf0, 0xf2, 0x56, 0xfa, 0x25, 0x06, 0x2c,
  0xcb, 0x19, 0x14, 0xec, 0x99, 0x20, 0xfc, 0x23, 0xe7, 0xf9, 0x07, 0xf7,
  0x12, 0xf2, 0x05, 0x0e, 0xf6, 0x05, 0xfd, 0x1d, 0x03, 0x08, 0x0c, 0xfd,
  0xe3, 0x1a, 0x14, 0xdc, 0x35, 0xd7, 0xf2, 0x1d, 0x26, 0xfe, 0xd8, 0x14,
  0x11, 0xdc, 0x0e, 0xce, 0x12, 0x00, 0xee, 0x1c, 0xf7, 0x18, 0x08, 0xfc,
  0xf0, 0x08, 0x15, 0xeb, 0xeb, 0x01, 0xfd, 0x1f, 0xcb, 0x1c, 0x11, 0xcc,
  0x35, 0xc8, 0xeb, 0xf4, 0x41, 0xde, 0xbf, 0x19, 0x17, 0xd4, 0x08, 0xc6,
  0x01, 0xfd, 0xfd, 0x06, 0xf6, 0xff, 0x01, 0xfb, 0x00, 0xfe, 0xff, 0xfa,
  0xf4, 0xfd, 0xfd, 0x07, 0xd2, 0xf6, 0x03, 0x05, 0xd7, 0x11, 0x0b, 0xcf,
  0xfd, 0xe9, 0xd7, 0x13, 0xe7, 0xfa, 0x1c, 0xca, 0x16, 0xf5, 0xee, 0x1c,
  0xfc, 0x07, 0xf8, 0x2b, 0x02, 0x0f, 0x07, 0xfc, 0xe3, 0x0b, 0x01, 0x19,
  0x12, 0x27, 0xf0, 0x07, 0xb5, 0xd1, 0x2c, 0xed, 0xfb, 0x0b, 0x2a, 0xf6,
  0xe9, 0x0d, 0xe0, 0xe0, 0xfe, 0xf4, 0xff, 0x01, 0xfc, 0x03, 0x03, 0x2d,
  0x0b, 0xf0, 0xfc, 0xfe, 0xec, 0xfa, 0xf5, 0xfd, 0xe3, 0x0b, 0xf3, 0x30,
  0xfe, 0xe5, 0xfd, 0x2b, 0x02, 0x17, 0xf2, 0x11, 0x18, 0x0c, 0xea, 0xf7,
  0xfc, 0x06, 0xfb, 0xf2, 0x09, 0xec, 0xef, 0x11, 0x0c, 0xf7, 0xf5, 0x0f,
  0x01, 0xfe, 0x0e, 0xef, 0xfd, 0xeb, 0x3a, 0xc6, 0xd1, 0x2a, 0x28, 0xf9,
  0xe7, 0x0a, 0xaa, 0x0e, 0xfe, 0x0b, 0xde, 0x07, 0xff, 0x06, 0xf8, 0xf6,
  0xff, 0xf9, 0xf9, 0x1b, 0xff, 0x0d, 0x01, 0x04, 0xec, 0x08, 0xf9, 0x07,
  0x0d, 0xe1, 0xf1, 0x00, 0xf1, 0x07, 0x09, 0xf7, 0xe2, 0x0f, 0x0e, 0xf6,
  0x14, 0x20, 0xf1, 0x1f, 0x0e, 0xf9, 0xee, 0x29, 0xef, 0x00, 0x17, 0xe2,
  0xf2, 0x00, 0x12, 0xe8, 0xf9, 0x0c, 0xe7, 0x15, 0x1d, 0xeb, 0xe0, 0x08,
  0x02, 0x1c, 0x19, 0xf3, 0xf5, 0x21, 0x0b, 0xe7, 0x11, 0x35, 0xf7, 0x04,
  0x06, 0xdc, 0xf7, 0x0f, 0xe4, 0x10, 0x2b, 0xe3, 0xf6, 0x1f, 0x19, 0xf2,
  0x1d, 0x16, 0xd4, 0x1b, 0xe2, 0x15, 0x10, 0xdc, 0x38, 0x06, 0x15, 0x00,
  0x08, 0xec, 0x09, 0xe7, 0x06, 0x1a, 0x18, 0x18, 0xea, 0x02, 0x06, 0x0d,
  0x2e, 0x19, 0x20, 0x05, 0xdf, 0xec, 0xe6, 0x30, 0xf4, 0xf4, 0x03, 0x17,
  0xf9, 0xe1, 0x14, 0xe2, 0x29, 0x1d, 0xe9, 0x35, 0xeb, 0x16, 0xfb, 0xf6,
  0xed, 0xeb, 0x0e, 0xff, 0xe6, 0x1e, 0xf1, 0xfc, 0x2c, 0xfc, 0x1b, 0x15,
  0x08, 0x0d, 0x01, 0x0f, 0xd8, 0xfd, 0xe2, 0xe2, 0x19, 0xee, 0x20, 0xfa,
  0x1b, 0x21, 0x02, 0xd6, 0x29, 0x00, 0x02, 0xd7, 0x21, 0xe9, 0xe9, 0xcd,
  0xf4, 0x15, 0x11, 0x19, 0x01, 0x10, 0x0c, 0xf9, 0x11, 0xed, 0x0b, 0xf0,
  0xf6, 0xed, 0x01, 0xfd, 0xe5, 0xd8, 0xd4, 0x0b, 0xed, 0xf0, 0xe0, 0x43,
  0xe7, 0xea, 0xdd, 0x37, 0xfe, 0xfb, 0xc2, 0x13, 0x06, 0x08, 0x12, 0x09,
  0xef, 0x04, 0xf2, 0xf9, 0x0b, 0xf0, 0xf7, 0x0d, 0x09, 0xe5, 0x09, 0x07,
  0xf2, 0x0f, 0x10, 0xe9, 0x08, 0xef, 0xf0, 0xf8, 0x20, 0xe6, 0xe2, 0x15,
  0x13, 0xea, 0x1b, 0xf4, 0x03, 0xff, 0xfd, 0x0b, 0xf0, 0x00, 0x0a, 0x04,
  0x00, 0xfe, 0x04, 0xfc, 0xf4, 0x00, 0xef, 0xfa, 0xda, 0x31, 0x32, 0xd9,
  0x1a, 0xd5, 0xd0, 0xfb, 0x50, 0xde, 0xd6, 0x1e, 0x24, 0xd2, 0x24, 0xcf,
  0x10, 0xf3, 0xf7, 0x0d, 0xf0, 0x0d, 0x10, 0x02, 0x01, 0x06, 0x0e, 0xf1,
  0x04, 0x08, 0xed, 0x0b, 0xf6, 0xe1, 0xfa, 0x1f, 0x01, 0x1a, 0x0d, 0xe5,
  0xf8, 0xf2, 0x02, 0xfa, 0x16, 0x0b, 0xff, 0xf1, 0x05, 0xf2, 0x08, 0x02,
  0x08, 0x10, 0x23, 0xec, 0x0b, 0x0c, 0x09, 0x06, 0x26, 0x0e, 0xea, 0xf4,
  0xdc, 0x19, 0x2f, 0x28, 0xd3, 0xfd, 0x21, 0xd9, 0xe3, 0x09, 0x0b, 0xe6,
  0x2d, 0xe5, 0xdd, 0x09, 0x1f, 0x05, 0xdb, 0x0a, 0x16, 0x17, 0x2a, 0xb0,
  0xee, 0x0c, 0x0c, 0xfb, 0x2d, 0x04, 0xeb, 0x0c, 0xf6, 0x07, 0x0a, 0xfd,
  0xea, 0x02, 0xf9, 0xfc, 0x05, 0xf7, 0xfb, 0x0f, 0x06, 0xfb, 0x03, 0xfd,
  0x0c, 0x02, 0xf6, 0x15, 0xf4, 0x08, 0x1d, 0xef, 0xff, 0x03, 0x0c, 0xee,
  0x05, 0x0d, 0xee, 0x0f, 0xf7, 0x0b, 0x06, 0xfe, 0xdd, 0x00, 0xfc, 0xf0,
  0x03, 0xf6, 0xff, 0x0a, 0x15, 0xf3, 0x02, 0xfb, 0x19, 0xfb, 0xf0, 0x16,
  0xee, 0x0f, 0x2a, 0xc7, 0xf6, 0xff, 0x0a, 0xf2, 0x2e, 0x14, 0xec, 0x0d,
  0x21, 0x1f, 0x0f, 0xf5, 0xcc, 0xe5, 0xf0, 0x08, 0xf1, 0x08, 0x0b, 0x0b,
  0x11, 0xf2, 0xf0, 0x22, 0x00, 0xfa, 0xff, 0x05, 0xe5, 0x0b, 0xf8, 0x14,
  0xfe, 0x01, 0xff, 0xf5, 0xf1, 0xfe, 0xf5, 0x0a, 0x03, 0xe9, 0xe1, 0x10,
  0xc9, 0x2a, 0xf4, 0xcb, 0xe9, 0xde, 0xf6, 0x04, 0x1f, 0xf7, 0x14, 0x22,
  0x12, 0xfc, 0xf3, 0x11, 0xfe, 0x08, 0xf8, 0x15, 0xfa, 0x0e, 0x05, 0xee,
  0xf5, 0x14, 0xfe, 0xfd, 0xfa, 0xfb, 0xff, 0xff, 0x04, 0x00, 0x00, 0x00,
  0x40, 0x00, 0x00, 0x00, 0x0b, 0x30, 0x00, 0x00, 0xbc, 0x16, 0x00, 0x00,
  0x20, 0x00, 0x00, 0x00, 0xb4, 0x07, 0x00, 0x00, 0x02, 0x81, 0xff, 0xff,
  0xde, 0xfb, 0xff, 0xff, 0x3f, 0x0f, 0x00, 0x00, 0xd3, 0x09, 0x00, 0x00,
  0x8e, 0xfd, 0xff, 0xff, 0xbc, 0x22, 0x00, 0x00, 0xd0, 0xde, 0xff, 0xff,
  0x9c, 0xfc, 0xff, 0xff, 0x35, 0x13, 0x00, 0x00, 0x54, 0x0b, 0x00, 0x00,
  0x0e, 0x8b, 0xff, 0xff, 0xd4, 0x34, 0x00, 0x00, 0x46, 0xfc, 0xff, 0xff,
  0x04, 0x00, 0x00, 0x00, 0x80, 0x00, 0x00, 0x00, 0xe7, 0xe3, 0xfe, 0xd7,
  0x03, 0xc8, 0x09, 0x02, 0xfb, 0x00, 0x00, 0x04, 0x05, 0x0d, 0xf0, 0x0c,
  0x11, 0xfd, 0xff, 0x05, 0xe3, 0x01, 0xe7, 0x0a, 0x0c, 0x0f, 0x08, 0x09,
  0xdc, 0x03, 0xef, 0x08, 0xd9, 0xe9, 0x09, 0xa2, 0xf5, 0xfa, 0xf9, 0x08,
  0xfb, 0xdc, 0x09, 0xfc, 0xf2, 0x09, 0x05, 0x1e, 0xed, 0x15, 0xb0, 0xfb,
  0xee, 0x10, 0x81, 0x02, 0xf9, 0x05, 0x00, 0xfb, 0xd4, 0x13, 0xfa, 0x0b,
  0xf4, 0xf7, 0x01, 0xab, 0x02, 0xec, 0xf5, 0x0c, 0x0d, 0xf1, 0x0d, 0x06,
  0x0a, 0xfa, 0xdf, 0x02, 0xe4, 0x0a, 0xef, 0xf6, 0xf7, 0xeb, 0xf3, 0xff,
  0xf9, 0x08, 0x00, 0xe5, 0xe7, 0x0d, 0xf3, 0x06, 0xf8, 0x06, 0x02, 0xf2,
  0xf2, 0xf0, 0xfb, 0x07, 0x0d, 0x04, 0xfc, 0xeb, 0xfc, 0xec, 0x08, 0xe7,
  0xef, 0x01, 0x1a, 0xf7, 0xfa, 0xfe, 0xd3, 0x14, 0x05, 0x06, 0x18, 0xfd,
  0xcf, 0x12, 0xff, 0xd3, 0xd2, 0xfc, 0xff, 0xff, 0x04, 0x00, 0x00, 0x00,
  0x20, 0x00, 0x00, 0x00, 0xd8, 0x06, 0x00, 0x00, 0x2c, 0x04, 0x00, 0x00,
  0xb5, 0x02, 0x00, 0x00, 0xda, 0x04, 0x00, 0x00, 0x79, 0x06, 0x00, 0x00,
  0x1c, 0x00, 0x00, 0x00, 0xfd, 0xfd, 0xff, 0xff, 0x5b, 0xff, 0xff, 0xff,
  0xfe, 0xfc, 0xff, 0xff, 0x04, 0x00, 0x00, 0x00, 0x08, 0x00, 0x00, 0x00,
  0x7f, 0x9d, 0x21, 0xdd, 0x5b, 0xaa, 0xda, 0xf3, 0x12, 0xfd, 0xff, 0xff,
  0x04, 0x00, 0x00, 0x00, 0x04, 0x00, 0x00, 0x00, 0x11, 0x05, 0x00, 0x00,
  0x22, 0xfd, 0xff, 0xff, 0x04, 0x00, 0x00, 0x00, 0x08, 0x00, 0x00, 0x00,
  0xff, 0xff, 0xff, 0xff, 0x40, 0x00, 0x00, 0x00, 0x9c, 0xeb, 0xff, 0xff,
  0x3a, 0xfd, 0xff, 0xff, 0x04, 0x00, 0x00, 0x00, 0x04, 0x00, 0x00, 0x00,
  0x02, 0x00, 0x00, 0x00, 0x4a, 0xfd, 0xff, 0xff, 0x04, 0x00, 0x00, 0x00,
  0x04, 0x00, 0x00, 0x00, 0x08, 0x00, 0x00, 0x00, 0x5a, 0xfd, 0xff, 0xff,
  0x04, 0x00, 0x00, 0x00, 0x04, 0x00, 0x00, 0x00, 0x01, 0x00, 0x00, 0x00,
  0x6a, 0xfd, 0xff, 0xff, 0x04, 0x00, 0x00, 0x00, 0x04, 0x00, 0x00, 0x00,
  0x00, 0x00, 0x00, 0x00, 0xe0, 0xeb, 0xff, 0xff, 0xe4, 0xeb, 0xff, 0xff,
  0x0f, 0x00, 0x00, 0x00, 0x4d, 0x4c, 0x49, 0x52, 0x20, 0x43, 0x6f, 0x6e,
  0x76, 0x65, 0x72, 0x74, 0x65, 0x64, 0x2e, 0x00, 0x01, 0x00, 0x00, 0x00,
  0x14, 0x00, 0x00, 0x00, 0x00, 0x00, 0x0e, 0x00, 0x18, 0x00, 0x14, 0x00,
  0x10, 0x00, 0x0c, 0x00, 0x08, 0x00, 0x04, 0x00, 0x0e, 0x00, 0x00, 0x00,
  0x14, 0x00, 0x00, 0x00, 0x1c, 0x00, 0x00, 0x00, 0x10, 0x03, 0x00, 0x00,
  0x14, 0x03, 0x00, 0x00, 0x18, 0x03, 0x00, 0x00, 0x04, 0x00, 0x00, 0x00,
  0x6d, 0x61, 0x69, 0x6e, 0x00, 0x00, 0x00, 0x00, 0x0b, 0x00, 0x00, 0x00,
  0xc0, 0x02, 0x00, 0x00, 0x60, 0x02, 0x00, 0x00, 0x08, 0x02, 0x00, 0x00,
  0xe0, 0x01, 0x00, 0x00, 0x80, 0x01, 0x00, 0x00, 0x2c, 0x01, 0x00, 0x00,
  0xdc, 0x00, 0x00, 0x00, 0xb4, 0x00, 0x00, 0x00, 0x78, 0x00, 0x00, 0x00,
  0x3c, 0x00, 0x00, 0x00, 0x04, 0x00, 0x00, 0x00, 0xd6, 0xfd, 0xff, 0xff,
  0x14, 0x00, 0x00, 0x00, 0x00, 0x00, 0x00, 0x08, 0x10, 0x00, 0x00, 0x00,
  0x14, 0x00, 0x00, 0x00, 0x06, 0x00, 0x00, 0x00, 0x80, 0xec, 0xff, 0xff,
  0x01, 0x00, 0x00, 0x00, 0x1b, 0x00, 0x00, 0x00, 0x03, 0x00, 0x00, 0x00,
  0x1a, 0x00, 0x00, 0x00, 0x08, 0x00, 0x00, 0x00, 0x07, 0x00, 0x00, 0x00,
  0x0a, 0xfe, 0xff, 0xff, 0x14, 0x00, 0x00, 0x00, 0x00, 0x00, 0x00, 0x08,
  0x14, 0x00, 0x00, 0x00, 0x18, 0x00, 0x00, 0x00, 0x06, 0x00, 0x00, 0x00,
  0xa2, 0xfd, 0xff, 0xff, 0x00, 0x00, 0x00, 0x01, 0x01, 0x00, 0x00, 0x00,
  0x1a, 0x00, 0x00, 0x00, 0x03, 0x00, 0x00, 0x00, 0x19, 0x00, 0x00, 0x00,
  0x0a, 0x00, 0x00, 0x00, 0x09, 0x00, 0x00, 0x00, 0x42, 0xfe, 0xff, 0xff,
  0x14, 0x00, 0x00, 0x00, 0x00, 0x00, 0x00, 0x08, 0x14, 0x00, 0x00, 0x00,
  0x18, 0x00, 0x00, 0x00, 0x06, 0x00, 0x00, 0x00, 0xda, 0xfd, 0xff, 0xff,
  0x00, 0x00, 0x00, 0x01, 0x01, 0x00, 0x00, 0x00, 0x19, 0x00, 0x00, 0x00,
  0x03, 0x00, 0x00, 0x00, 0x18, 0x00, 0x00, 0x00, 0x0c, 0x00, 0x00, 0x00,
  0x0b, 0x00, 0x00, 0x00, 0xee, 0xfe, 0xff, 0xff, 0x0c, 0x00, 0x00, 0x00,
  0x10, 0x00, 0x00, 0x00, 0x03, 0x00, 0x00, 0x00, 0x01, 0x00, 0x00, 0x00,
  0x18, 0x00, 0x00, 0x00, 0x02, 0x00, 0x00, 0x00, 0x17, 0x00, 0x00, 0x00,
  0x06, 0x00, 0x00, 0x00, 0x9e, 0xfe, 0xff, 0xff, 0x20, 0x00, 0x00, 0x00,
  0x00, 0x00, 0x00, 0x01, 0x28, 0x00, 0x00, 0x00, 0x2c, 0x00, 0x00, 0x00,
  0x04, 0x00, 0x00, 0x00, 0x00, 0x00, 0x0a, 0x00, 0x10, 0x00, 0x0f, 0x00,
  0x08, 0x00, 0x04, 0x00, 0x0a, 0x00, 0x00, 0x00, 0x01, 0x00, 0x00, 0x00,
  0x01, 0x00, 0x00, 0x00, 0x00, 0x00, 0x00, 0x01, 0x01, 0x00, 0x00, 0x00,
  0x17, 0x00, 0x00, 0x00, 0x03, 0x00, 0x00, 0x00, 0x16, 0x00, 0x00, 0x00,
  0x0e, 0x00, 0x00, 0x00, 0x0d, 0x00, 0x00, 0x00, 0xea, 0xfe, 0xff, 0xff,
  0x24, 0x00, 0x00, 0x00, 0x00, 0x00, 0x00, 0x05, 0x34, 0x00, 0x00, 0x00,
  0x38, 0x00, 0x00, 0x00, 0x05, 0x00, 0x00, 0x00, 0x00, 0x00, 0x0e, 0x00,
  0x18, 0x00, 0x17, 0x00, 0x10, 0x00, 0x0c, 0x00, 0x08, 0x00, 0x04, 0x00,
  0x0e, 0x00, 0x00, 0x00, 0x02, 0x00, 0x00, 0x00, 0x01, 0x00, 0x00, 0x00,
  0x02, 0x00, 0x00, 0x00, 0x01, 0x00, 0x00, 0x00, 0x00, 0x00, 0x00, 0x01,
  0x01, 0x00, 0x00, 0x00, 0x16, 0x00, 0x00, 0x00, 0x01, 0x00, 0x00, 0x00,
  0x15, 0x00, 0x00, 0x00, 0x3a, 0xff, 0xff, 0xff, 0x20, 0x00, 0x00, 0x00,
  0x00, 0x00, 0x00, 0x01, 0x2c, 0x00, 0x00, 0x00, 0x30, 0x00, 0x00, 0x00,
  0x04, 0x00, 0x00, 0x00, 0x0c, 0x00, 0x14, 0x00, 0x13, 0x00, 0x0c, 0x00,
  0x08, 0x00, 0x07, 0x00, 0x0c, 0x00, 0x00, 0x00, 0x00, 0x00, 0x00, 0x01,
  0x01, 0x00, 0x00, 0x00, 0x01, 0x00, 0x00, 0x00, 0x00, 0x00, 0x00, 0x01,
  0x01, 0x00, 0x00, 0x00, 0x15, 0x00, 0x00, 0x00, 0x03, 0x00, 0x00, 0x00,
  0x14, 0x00, 0x00, 0x00, 0x10, 0x00, 0x00, 0x00, 0x0f, 0x00, 0x00, 0x00,
  0x00, 0x00, 0x0a, 0x00, 0x10, 0x00, 0x0c, 0x00, 0x08, 0x00, 0x04, 0x00,
  0x0a, 0x00, 0x00, 0x00, 0x0c, 0x00, 0x00, 0x00, 0x10, 0x00, 0x00, 0x00,
  0x03, 0x00, 0x00, 0x00, 0x01, 0x00, 0x00, 0x00, 0x14, 0x00, 0x00, 0x00,
  0x02, 0x00, 0x00, 0x00, 0x00, 0x00, 0x00, 0x00, 0x13, 0x00, 0x00, 0x00,
  0xba, 0xff, 0xff, 0xff, 0x1c, 0x00, 0x00, 0x00, 0x00, 0x00, 0x00, 0x3b,
  0x1c, 0x00, 0x00, 0x00, 0x20, 0x00, 0x00, 0x00, 0x02, 0x00, 0x00, 0x00,
  0x00, 0x00, 0x06, 0x00, 0x08, 0x00, 0x04, 0x00, 0x06, 0x00, 0x00, 0x00,
  0x04, 0x00, 0x00, 0x00, 0x01, 0x00, 0x00, 0x00, 0x13, 0x00, 0x00, 0x00,
  0x04, 0x00, 0x00, 0x00, 0x12, 0x00, 0x00, 0x00, 0x03, 0x00, 0x00, 0x00,
  0x04, 0x00, 0x00, 0x00, 0x05, 0x00, 0x00, 0x00, 0x00, 0x00, 0x0e, 0x00,
  0x1a, 0x00, 0x14, 0x00, 0x10, 0x00, 0x0c, 0x00, 0x0b, 0x00, 0x04, 0x00,
  0x0e, 0x00, 0x00, 0x00, 0x24, 0x00, 0x00, 0x00, 0x00, 0x00, 0x00, 0x20,
  0x24, 0x00, 0x00, 0x00, 0x28, 0x00, 0x00, 0x00, 0x01, 0x00, 0x00, 0x00,
  0x00, 0x00, 0x0e, 0x00, 0x08, 0x00, 0x00, 0x00, 0x00, 0x00, 0x00, 0x00,
  0x00, 0x00, 0x04, 0x00, 0x0e, 0x00, 0x00, 0x00, 0x01, 0x00, 0x00, 0x00,
  0x01, 0x00, 0x00, 0x00, 0x12, 0x00, 0x00, 0x00, 0x04, 0x00, 0x00, 0x00,
  0x11, 0x00, 0x00, 0x00, 0x01, 0x00, 0x00, 0x00, 0x02, 0x00, 0x00, 0x00,
  0x02, 0x00, 0x00, 0x00, 0x00, 0x00, 0x0e, 0x00, 0x16, 0x00, 0x00, 0x00,
  0x10, 0x00, 0x0c, 0x00, 0x0b, 0x00, 0x04, 0x00, 0x0e, 0x00, 0x00, 0x00,
  0x18, 0x00, 0x00, 0x00, 0x00, 0x00, 0x00, 0x37, 0x18, 0x00, 0x00, 0x00,
  0x1c, 0x00, 0x00, 0x00, 0x00, 0x00, 0x06, 0x00, 0x08, 0x00, 0x07, 0x00,
  0x06, 0x00, 0x00, 0x00, 0x00, 0x00, 0x00, 0x02, 0x01, 0x00, 0x00, 0x00,
  0x11, 0x00, 0x00, 0x00, 0x01, 0x00, 0x00, 0x00, 0x00, 0x00, 0x00, 0x00,
  0x01, 0x00, 0x00, 0x00, 0x1b, 0x00, 0x00, 0x00, 0x01, 0x00, 0x00, 0x00,
  0x00, 0x00, 0x00, 0x00, 0x1c, 0x00, 0x00, 0x00, 0x10, 0x11, 0x00, 0x00,
  0x9c, 0x10, 0x00, 0x00, 0x28, 0x10, 0x00, 0x00, 0xd8, 0x0f, 0x00, 0x00,
  0x88, 0x0f, 0x00, 0x00, 0x38, 0x0f, 0x00, 0x00, 0xec, 0x0e, 0x00, 0x00,
  0x74, 0x0e, 0x00, 0x00, 0x08, 0x0e, 0x00, 0x00, 0x8c, 0x0d, 0x00, 0x00,
  0x20, 0x0d, 0x00, 0x00, 0xac, 0x0c, 0x00, 0x00, 0x40, 0x0c, 0x00, 0x00,
  0x14, 0x0b, 0x00, 0x00, 0xf0, 0x09, 0x00, 0x00, 0x04, 0x08, 0x00, 0x00,
  0x20, 0x06, 0x00, 0x00, 0xd4, 0x05, 0x00, 0x00, 0x84, 0x05, 0x00, 0x00,
  0x30, 0x05, 0x00, 0x00, 0xa0, 0x04, 0x00, 0x00, 0xbc, 0x03, 0x00, 0x00,
  0x28, 0x03, 0x00, 0x00, 0x5c, 0x02, 0x00, 0x00, 0xe0, 0x01, 0x00, 0x00,
  0x34, 0x01, 0x00, 0x00, 0x80, 0x00, 0x00, 0x00, 0x04, 0x00, 0x00, 0x00,
  0x76, 0xef, 0xff, 0xff, 0x00, 0x00, 0x00, 0x01, 0x18, 0x00, 0x00, 0x00,
  0x20, 0x00, 0x00, 0x00, 0x3c, 0x00, 0x00, 0x00, 0x1c, 0x00, 0x00, 0x00,
  0x00, 0x00, 0x00, 0x09, 0x50, 0x00, 0x00, 0x00, 0x02, 0x00, 0x00, 0x00,
  0xff, 0xff, 0xff, 0xff, 0x01, 0x00, 0x00, 0x00, 0x5c, 0xef, 0xff, 0xff,
  0x08, 0x00, 0x00, 0x00, 0x10, 0x00, 0x00, 0x00, 0x01, 0x00, 0x00, 0x00,
  0x51, 0x00, 0x00, 0x00, 0x00, 0x00, 0x00, 0x00, 0x01, 0x00, 0x00, 0x00,
  0xa4, 0x13, 0x2f, 0x3c, 0x19, 0x00, 0x00, 0x00, 0x53, 0x74, 0x61, 0x74,
  0x65, 0x66, 0x75, 0x6c, 0x50, 0x61, 0x72, 0x74, 0x69, 0x74, 0x69, 0x6f,
  0x6e, 0x65, 0x64, 0x43, 0x61, 0x6c, 0x6c, 0x3a, 0x30, 0x00, 0x00, 0x00,
  0x02, 0x00, 0x00, 0x00, 0x01, 0x00, 0x00, 0x00, 0x01, 0x00, 0x00, 0x00,
  0xee, 0xef, 0xff, 0xff, 0x00, 0x00, 0x00, 0x01, 0x18, 0x00, 0x00, 0x00,
  0x20, 0x00, 0x00, 0x00, 0x40, 0x00, 0x00, 0x00, 0x1b, 0x00, 0x00, 0x00,
  0x00, 0x00, 0x00, 0x09, 0x88, 0x00, 0x00, 0x00, 0x02, 0x00, 0x00, 0x00,
  0xff, 0xff, 0xff, 0xff, 0x08, 0x00, 0x00, 0x00, 0xd4, 0xef, 0xff, 0xff,
  0x08, 0x00, 0x00, 0x00, 0x14, 0x00, 0x00, 0x00, 0x01, 0x00, 0x00, 0x00,
  0x80, 0xff, 0xff, 0xff, 0xff, 0xff, 0xff, 0xff, 0x00, 0x00, 0x00, 0x00,
  0x01, 0x00, 0x00, 0x00, 0x23, 0x4f, 0x98, 0x3c, 0x4c, 0x00, 0x00, 0x00,
  0x73, 0x65, 0x71, 0x75, 0x65, 0x6e, 0x74, 0x69, 0x61, 0x6c, 0x2f, 0x64,
  0x65, 0x6e, 0x73, 0x65, 0x5f, 0x31, 0x2f, 0x4d, 0x61, 0x74, 0x4d, 0x75,
  0x6c, 0x3b, 0x73, 0x65, 0x71, 0x75, 0x65, 0x6e, 0x74, 0x69, 0x61, 0x6c,
  0x2f, 0x64, 0x65, 0x6e, 0x73, 0x65, 0x5f, 0x31, 0x2f, 0x52, 0x65, 0x6c,
  0x75, 0x3b, 0x73, 0x65, 0x71, 0x75, 0x65, 0x6e, 0x74, 0x69, 0x61, 0x6c,
  0x2f, 0x64, 0x65, 0x6e, 0x73, 0x65, 0x5f, 0x31, 0x2f, 0x42, 0x69, 0x61,
  0x73, 0x41, 0x64, 0x64, 0x00, 0x00, 0x00, 0x00, 0x02, 0x00, 0x00, 0x00,
  0x01, 0x00, 0x00, 0x00, 0x08, 0x00, 0x00, 0x00, 0x9e, 0xf0, 0xff, 0xff,
  0x00, 0x00, 0x00, 0x01, 0x18, 0x00, 0x00, 0x00, 0x20, 0x00, 0x00, 0x00,
  0x40, 0x00, 0x00, 0x00, 0x1a, 0x00, 0x00, 0x00, 0x00, 0x00, 0x00, 0x09,
  0x80, 0x00, 0x00, 0x00, 0x02, 0x00, 0x00, 0x00, 0xff, 0xff, 0xff, 0xff,
  0x10, 0x00, 0x00, 0x00, 0x84, 0xf0, 0xff, 0xff, 0x08, 0x00, 0x00, 0x00,
  0x14, 0x00, 0x00, 0x00, 0x01, 0x00, 0x00, 0x00, 0x80, 0xff, 0xff, 0xff,
  0xff, 0xff, 0xff, 0xff, 0x00, 0x00, 0x00, 0x00, 0x01, 0x00, 0x00, 0x00,
  0x6b, 0x24, 0xf2, 0x3c, 0x46, 0x00, 0x00, 0x00, 0x73, 0x65, 0x71, 0x75,
  0x65, 0x6e, 0x74, 0x69, 0x61, 0x6c, 0x2f, 0x64, 0x65, 0x6e, 0x73, 0x65,
  0x2f, 0x4d, 0x61, 0x74, 0x4d, 0x75, 0x6c, 0x3b, 0x73, 0x65, 0x71, 0x75,
  0x65, 0x6e, 0x74, 0x69, 0x61, 0x6c, 0x2f, 0x64, 0x65, 0x6e, 0x73, 0x65,
  0x2f, 0x52, 0x65, 0x6c, 0x75, 0x3b, 0x73, 0x65, 0x71, 0x75, 0x65, 0x6e,
  0x74, 0x69, 0x61, 0x6c, 0x2f, 0x64, 0x65, 0x6e, 0x73, 0x65, 0x2f, 0x42,
  0x69, 0x61, 0x73, 0x41, 0x64, 0x64, 0x00, 0x00, 0x02, 0x00, 0x00, 0x00,
  0x01, 0x00, 0x00, 0x00, 0x10, 0x00, 0x00, 0x00, 0x46, 0xf1, 0xff, 0xff,
  0x00, 0x00, 0x00, 0x01, 0x18, 0x00, 0x00, 0x00, 0x20, 0x00, 0x00, 0x00,
  0x3c, 0x00, 0x00, 0x00, 0x19, 0x00, 0x00, 0x00, 0x00, 0x00, 0x00, 0x09,
  0x50, 0x00, 0x00, 0x00, 0x02, 0x00, 0x00, 0x00, 0xff, 0xff, 0xff, 0xff,
  0x40, 0x00, 0x00, 0x00, 0x2c, 0xf1, 0xff, 0xff, 0x08, 0x00, 0x00, 0x00,
  0x10, 0x00, 0x00, 0x00, 0x01, 0x00, 0x00, 0x00, 0x08, 0x00, 0x00, 0x00,
  0x00, 0x00, 0x00, 0x00, 0x01, 0x00, 0x00, 0x00, 0xa5, 0x8a, 0x03, 0x3c,
  0x1a, 0x00, 0x00, 0x00, 0x73, 0x65, 0x71, 0x75, 0x65, 0x6e, 0x74, 0x69,
  0x61, 0x6c, 0x2f, 0x66, 0x6c, 0x61, 0x74, 0x74, 0x65, 0x6e, 0x2f, 0x52,
  0x65, 0x73, 0x68, 0x61, 0x70, 0x65, 0x00, 0x00, 0x02, 0x00, 0x00, 0x00,
  0x01, 0x00, 0x00, 0x00, 0x40, 0x00, 0x00, 0x00, 0xbe, 0xf1, 0xff, 0xff,
  0x00, 0x00, 0x00, 0x01, 0x18, 0x00, 0x00, 0x00, 0x28, 0x00, 0x00, 0x00,
  0x44, 0x00, 0x00, 0x00, 0x18, 0x00, 0x00, 0x00, 0x00, 0x00, 0x00, 0x09,
  0x98, 0x00, 0x00, 0x00, 0x04, 0x00, 0x00, 0x00, 0xff, 0xff, 0xff, 0xff,
  0x02, 0x00, 0x00, 0x00, 0x02, 0x00, 0x00, 0x00, 0x10, 0x00, 0x00, 0x00,
  0xac, 0xf1, 0xff, 0xff, 0x08, 0x00, 0x00, 0x00, 0x10, 0x00, 0x00, 0x00,
  0x01, 0x00, 0x00, 0x00, 0x08, 0x00, 0x00, 0x00, 0x00, 0x00, 0x00, 0x00,
  0x01, 0x00, 0x00, 0x00, 0xa5, 0x8a, 0x03, 0x3c, 0x58, 0x00, 0x00, 0x00,
  0x73, 0x65, 0x71, 0x75, 0x65, 0x6e, 0x74, 0x69, 0x61, 0x6c, 0x2f, 0x43,
  0x6f, 0x6e, 0x76, 0x32, 0x2f, 0x42, 0x69, 0x61, 0x73, 0x41, 0x64, 0x64,
  0x3b, 0x73, 0x65, 0x71, 0x75, 0x65, 0x6e, 0x74, 0x69, 0x61, 0x6c, 0x2f,
  0x43, 0x6f, 0x6e, 0x76, 0x32, 0x2f, 0x43, 0x6f, 0x6e, 0x76, 0x32, 0x44,
  0x3b, 0x73, 0x65, 0x71, 0x75, 0x65, 0x6e, 0x74, 0x69, 0x61, 0x6c, 0x2f,
  0x43, 0x6f, 0x6e, 0x76, 0x32, 0x2f, 0x42, 0x69, 0x61, 0x73, 0x41, 0x64,
  0x64, 0x2f, 0x52, 0x65, 0x61, 0x64, 0x56, 0x61, 0x72, 0x69, 0x61, 0x62,
  0x6c, 0x65, 0x4f, 0x70, 0x00, 0x00, 0x00, 0x00, 0x04, 0x00, 0x00, 0x00,
  0x01, 0x00, 0x00, 0x00, 0x02, 0x00, 0x00, 0x00, 0x02, 0x00, 0x00, 0x00,
  0x10, 0x00, 0x00, 0x00, 0x86, 0xf2, 0xff, 0xff, 0x00, 0x00, 0x00, 0x01,
  0x18, 0x00, 0x00, 0x00, 0x28, 0x00, 0x00, 0x00, 0x44, 0x00, 0x00, 0x00,
  0x17, 0x00, 0x00, 0x00, 0x00, 0x00, 0x00, 0x09, 0x60, 0x00, 0x00, 0x00,
  0x04, 0x00, 0x00, 0x00, 0xff, 0xff, 0xff, 0xff, 0x03, 0x00, 0x00, 0x00,
  0x02, 0x00, 0x00, 0x00, 0x20, 0x00, 0x00, 0x00, 0x74, 0xf2, 0xff, 0xff,
  0x08, 0x00, 0x00, 0x00, 0x10, 0x00, 0x00, 0x00, 0x01, 0x00, 0x00, 0x00,
  0x80, 0xff, 0xff, 0xff, 0xff, 0xff, 0xff, 0xff, 0x01, 0x00, 0x00, 0x00,
  0xa2, 0x23, 0x39, 0x3b, 0x20, 0x00, 0x00, 0x00, 0x73, 0x65, 0x71, 0x75,
  0x65, 0x6e, 0x74, 0x69, 0x61, 0x6c, 0x2f, 0x6d, 0x61, 0x78, 0x5f, 0x70,
  0x6f, 0x6f, 0x6c, 0x69, 0x6e, 0x67, 0x32, 0x64, 0x2f, 0x4d, 0x61, 0x78,
  0x50, 0x6f, 0x6f, 0x6c, 0x00, 0x00, 0x00, 0x00, 0x04, 0x00, 0x00, 0x00,
  0x01, 0x00, 0x00, 0x00, 0x03, 0x00, 0x00, 0x00, 0x02, 0x00, 0x00, 0x00,
  0x20, 0x00, 0x00, 0x00, 0x16, 0xf3, 0xff, 0xff, 0x00, 0x00, 0x00, 0x01,
  0x18, 0x00, 0x00, 0x00, 0x28, 0x00, 0x00, 0x00, 0x48, 0x00, 0x00, 0x00,
  0x16, 0x00, 0x00, 0x00, 0x00, 0x00, 0x00, 0x09, 0xb0, 0x00, 0x00, 0x00,
  0x04, 0x00, 0x00, 0x00, 0xff, 0xff, 0xff, 0xff, 0x07, 0x00, 0x00, 0x00,
  0x02, 0x00, 0x00, 0x00, 0x20, 0x00, 0x00, 0x00, 0x04, 0xf3, 0xff, 0xff,
  0x08, 0x00, 0x00, 0x00, 0x14, 0x00, 0x00, 0x00, 0x01, 0x00, 0x00, 0x00,
  0x80, 0xff, 0xff, 0xff, 0xff, 0xff, 0xff, 0xff, 0x00, 0x00, 0x00, 0x00,
  0x01, 0x00, 0x00, 0x00, 0xa2, 0x23, 0x39, 0x3b, 0x6e, 0x00, 0x00, 0x00,
  0x73, 0x65, 0x71, 0x75, 0x65, 0x6e, 0x74, 0x69, 0x61, 0x6c, 0x2f, 0x43,
  0x6f, 0x6e, 0x76, 0x31, 0x2f, 0x52, 0x65, 0x6c, 0x75, 0x3b, 0x73, 0x65,
  0x71, 0x75, 0x65, 0x6e, 0x74, 0x69, 0x61, 0x6c, 0x2f, 0x43, 0x6f, 0x6e,
  0x76, 0x31, 0x2f, 0x42, 0x69, 0x61, 0x73, 0x41, 0x64, 0x64, 0x3b, 0x73,
  0x65, 0x71, 0x75, 0x65, 0x6e, 0x74, 0x69, 0x61, 0x6c, 0x2f, 0x43, 0x6f,
  0x6e, 0x76, 0x31, 0x2f, 0x43, 0x6f, 0x6e, 0x76, 0x32, 0x44, 0x3b, 0x73,
  0x65, 0x71, 0x75, 0x65, 0x6e, 0x74, 0x69, 0x61, 0x6c, 0x2f, 0x43, 0x6f,
  0x6e, 0x76, 0x31, 0x2f, 0x42, 0x69, 0x61, 0x73, 0x41, 0x64, 0x64, 0x2f,
  0x52, 0x65, 0x61, 0x64, 0x56, 0x61, 0x72, 0x69, 0x61, 0x62, 0x6c, 0x65,
  0x4f, 0x70, 0x00, 0x00, 0x04, 0x00, 0x00, 0x00, 0x01, 0x00, 0x00, 0x00,
  0x07, 0x00, 0x00, 0x00, 0x02, 0x00, 0x00, 0x00, 0x20, 0x00, 0x00, 0x00,
  0xf6, 0xf3, 0xff, 0xff, 0x00, 0x00, 0x00, 0x01, 0x18, 0x00, 0x00, 0x00,
  0x28, 0x00, 0x00, 0x00, 0x48, 0x00, 0x00, 0x00, 0x15, 0x00, 0x00, 0x00,
  0x00, 0x00, 0x00, 0x09, 0x5c, 0x00, 0x00, 0x00, 0x04, 0x00, 0x00, 0x00,
  0xff, 0xff, 0xff, 0xff, 0x08, 0x00, 0x00, 0x00, 0x02, 0x00, 0x00, 0x00,
  0x01, 0x00, 0x00, 0x00, 0xe4, 0xf3, 0xff, 0xff, 0x08, 0x00, 0x00, 0x00,
  0x14, 0x00, 0x00, 0x00, 0x01, 0x00, 0x00, 0x00, 0x10, 0x00, 0x00, 0x00,
  0x00, 0x00, 0x00, 0x00, 0x00, 0x00, 0x00, 0x00, 0x01, 0x00, 0x00, 0x00,
  0xed, 0x3e, 0x92, 0x3c, 0x1a, 0x00, 0x00, 0x00, 0x73, 0x65, 0x71, 0x75,
  0x65, 0x6e, 0x74, 0x69, 0x61, 0x6c, 0x2f, 0x72, 0x65, 0x73, 0x68, 0x61,
  0x70, 0x65, 0x2f, 0x52, 0x65, 0x73, 0x68, 0x61, 0x70, 0x65, 0x00, 0x00,
  0x04, 0x00, 0x00, 0x00, 0x01, 0x00, 0x00, 0x00, 0x08, 0x00, 0x00, 0x00,
  0x02, 0x00, 0x00, 0x00, 0x01, 0x00, 0x00, 0x00, 0xf2, 0xf4, 0xff, 0xff,
  0x00, 0x00, 0x00, 0x01, 0x14, 0x00, 0x00, 0x00, 0x14, 0x00, 0x00, 0x00,
  0x14, 0x00, 0x00, 0x00, 0x00, 0x00, 0x00, 0x02, 0x30, 0x00, 0x00, 0x00,
  0xdc, 0xf4, 0xff, 0xff, 0x20, 0x00, 0x00, 0x00, 0x73, 0x65, 0x71, 0x75,
  0x65, 0x6e, 0x74, 0x69, 0x61, 0x6c, 0x2f, 0x72, 0x65, 0x73, 0x68, 0x61,
  0x70, 0x65, 0x2f, 0x52, 0x65, 0x73, 0x68, 0x61, 0x70, 0x65, 0x2f, 0x73,
  0x68, 0x61, 0x70, 0x65, 0x00, 0x00, 0x00, 0x00, 0x01, 0x00, 0x00, 0x00,
  0x04, 0x00, 0x00, 0x00, 0x42, 0xf5, 0xff, 0xff, 0x00, 0x00, 0x00, 0x01,
  0x14, 0x00, 0x00, 0x00, 0x14, 0x00, 0x00, 0x00, 0x13, 0x00, 0x00, 0x00,
  0x00, 0x00, 0x00, 0x02, 0x30, 0x00, 0x00, 0x00, 0x2c, 0xf5, 0xff, 0xff,
  0x20, 0x00, 0x00, 0x00, 0x73, 0x65, 0x71, 0x75, 0x65, 0x6e, 0x74, 0x69,
  0x61, 0x6c, 0x2f, 0x72, 0x65, 0x73, 0x68, 0x61, 0x70, 0x65, 0x2f, 0x73,
  0x74, 0x72, 0x69, 0x64, 0x65, 0x64, 0x5f, 0x73, 0x6c, 0x69, 0x63, 0x65,
  0x00, 0x00, 0x00, 0x00, 0x00, 0x00, 0x00, 0x00, 0x8e, 0xf5, 0xff, 0xff,
  0x00, 0x00, 0x00, 0x01, 0x14, 0x00, 0x00, 0x00, 0x14, 0x00, 0x00, 0x00,
  0x12, 0x00, 0x00, 0x00, 0x00, 0x00, 0x00, 0x02, 0x28, 0x00, 0x00, 0x00,
  0x78, 0xf5, 0xff, 0xff, 0x18, 0x00, 0x00, 0x00, 0x73, 0x65, 0x71, 0x75,
  0x65, 0x6e, 0x74, 0x69, 0x61, 0x6c, 0x2f, 0x72, 0x65, 0x73, 0x68, 0x61,
  0x70, 0x65, 0x2f, 0x53, 0x68, 0x61, 0x70, 0x65, 0x00, 0x00, 0x00, 0x00,
  0x01, 0x00, 0x00, 0x00, 0x03, 0x00, 0x00, 0x00, 0xd6, 0xf5, 0xff, 0xff,
  0x00, 0x00, 0x00, 0x01, 0x14, 0x00, 0x00, 0x00, 0xa4, 0x01, 0x00, 0x00,
  0x11, 0x00, 0x00, 0x00, 0x00, 0x00, 0x00, 0x09, 0xb4, 0x01, 0x00, 0x00,
  0x3c, 0xf5, 0xff, 0xff, 0x08, 0x00, 0x00, 0x00, 0x08, 0x01, 0x00, 0x00,
  0x20, 0x00, 0x00, 0x00, 0x00, 0x00, 0x00, 0x00, 0x00, 0x00, 0x00, 0x00,
  0x00, 0x00, 0x00, 0x00, 0x00, 0x00, 0x00, 0x00, 0x00, 0x00, 0x00, 0x00,
  0x00, 0x00, 0x00, 0x00, 0x00, 0x00, 0x00, 0x00, 0x00, 0x00, 0x00, 0x00,
  0x00, 0x00, 0x00, 0x00, 0x00, 0x00, 0x00, 0x00, 0x00, 0x00, 0x00, 0x00,
  0x00, 0x00, 0x00, 0x00, 0x00, 0x00, 0x00, 0x00, 0x00, 0x00, 0x00, 0x00,
  0x00, 0x00, 0x00, 0x00, 0x00, 0x00, 0x00, 0x00, 0x00, 0x00, 0x00, 0x00,
  0x00, 0x00, 0x00, 0x00, 0x00, 0x00, 0x00, 0x00, 0x00, 0x00, 0x00, 0x00,
  0x00, 0x00, 0x00, 0x00, 0x00, 0x00, 0x00, 0x00, 0x00, 0x00, 0x00, 0x00,
  0x00, 0x00, 0x00, 0x00, 0x00, 0x00, 0x00, 0x00, 0x00, 0x00, 0x00, 0x00,
  0x00, 0x00, 0x00, 0x00, 0x00, 0x00, 0x00, 0x00, 0x00, 0x00, 0x00, 0x00,
  0x00, 0x00, 0x00, 0x00, 0x00, 0x00, 0x00, 0x00, 0x00, 0x00, 0x00, 0x00,
  0x00, 0x00, 0x00, 0x00, 0x00, 0x00, 0x00, 0x00, 0x00, 0x00, 0x00, 0x00,
  0x00, 0x00, 0x00, 0x00, 0x00, 0x00, 0x00, 0x00, 0x00, 0x00, 0x00, 0x00,
  0x00, 0x00, 0x00, 0x00, 0x00, 0x00, 0x00, 0x00, 0x00, 0x00, 0x00, 0x00,
  0x00, 0x00, 0x00, 0x00, 0x00, 0x00, 0x00, 0x00, 0x00, 0x00, 0x00, 0x00,
  0x00, 0x00, 0x00, 0x00, 0x00, 0x00, 0x00, 0x00, 0x00, 0x00, 0x00, 0x00,
  0x00, 0x00, 0x00, 0x00, 0x00, 0x00, 0x00, 0x00, 0x00, 0x00, 0x00, 0x00,
  0x00, 0x00, 0x00, 0x00, 0x00, 0x00, 0x00, 0x00, 0x00, 0x00, 0x00, 0x00,
  0x00, 0x00, 0x00, 0x00, 0x00, 0x00, 0x00, 0x00, 0x00, 0x00, 0x00, 0x00,
  0x00, 0x00, 0x00, 0x00, 0x00, 0x00, 0x00, 0x00, 0x00, 0x00, 0x00, 0x00,
  0x00, 0x00, 0x00, 0x00, 0x00, 0x00, 0x00, 0x00, 0x00, 0x00, 0x00, 0x00,
  0x00, 0x00, 0x00, 0x00, 0x00, 0x00, 0x00, 0x00, 0x20, 0x00, 0x00, 0x00,
  0x43, 0xc6, 0xb8, 0x3a, 0xc3, 0x23, 0x04, 0x3b, 0xd1, 0x88, 0x25, 0x3b,
  0x02, 0x4c, 0x3f, 0x3b, 0xaf, 0xd6, 0xf3, 0x3a, 0xc9, 0x2f, 0x14, 0x3b,
  0x18, 0xab, 0x8b, 0x3a, 0x45, 0xe2, 0x04, 0x3b, 0x29, 0x9c, 0x09, 0x3b,
  0xbd, 0xe6, 0x0f, 0x3b, 0x8e, 0x38, 0x04, 0x3b, 0x2c, 0x44, 0x20, 0x3b,
  0x45, 0xac, 0xe2, 0x3a, 0x4d, 0x5b, 0x26, 0x3b, 0xcb, 0x22, 0x0f, 0x3b,
  0xa1, 0xc2, 0x11, 0x3b, 0x69, 0xc5, 0xc2, 0x3a, 0x6a, 0xd3, 0xf7, 0x3a,
  0xba, 0xe2, 0xca, 0x3a, 0xe7, 0xfb, 0x39, 0x3b, 0x9b, 0x3b, 0xac, 0x3a,
  0xa5, 0x47, 0x0b, 0x3b, 0x44, 0x6a, 0x27, 0x3b, 0xd3, 0xca, 0x2a, 0x3b,
  0x30, 0x9c, 0xfa, 0x3a, 0x04, 0xbf, 0x19, 0x3b, 0xf9, 0x6e, 0x29, 0x3b,
  0x8c, 0x46, 0x5a, 0x3b, 0x18, 0xe7, 0x31, 0x3b, 0xaa, 0x26, 0xd0, 0x3a,
  0x66, 0x9e, 0x28, 0x3b, 0x63, 0x40, 0x35, 0x3b, 0x17, 0x00, 0x00, 0x00,
  0x73, 0x65, 0x71, 0x75, 0x65, 0x6e, 0x74, 0x69, 0x61, 0x6c, 0x2f, 0x43,
  0x6f, 0x6e, 0x76, 0x31, 0x2f, 0x43, 0x6f, 0x6e, 0x76, 0x32, 0x44, 0x00,
  0x04, 0x00, 0x00, 0x00, 0x20, 0x00, 0x00, 0x00, 0x02, 0x00, 0x00, 0x00,
  0x01, 0x00, 0x00, 0x00, 0x01, 0x00, 0x00, 0x00, 0xb6, 0xf7, 0xff, 0xff,
  0x00, 0x00, 0x00, 0x01, 0x14, 0x00, 0x00, 0x00, 0xa8, 0x01, 0x00, 0x00,
  0x10, 0x00, 0x00, 0x00, 0x00, 0x00, 0x00, 0x02, 0xc8, 0x01, 0x00, 0x00,
  0x1c, 0xf7, 0xff, 0xff, 0x08, 0x00, 0x00, 0x00, 0x0c, 0x01, 0x00, 0x00,
  0x20, 0x00, 0x00, 0x00, 0x00, 0x00, 0x00, 0x00, 0x00, 0x00, 0x00, 0x00,
  0x00, 0x00, 0x00, 0x00, 0x00, 0x00, 0x00, 0x00, 0x00, 0x00, 0x00, 0x00,
  0x00, 0x00, 0x00, 0x00, 0x00, 0x00, 0x00, 0x00, 0x00, 0x00, 0x00, 0x00,
  0x00, 0x00, 0x00, 0x00, 0x00, 0x00, 0x00, 0x00, 0x00, 0x00, 0x00, 0x00,
  0x00, 0x00, 0x00, 0x00, 0x00, 0x00, 0x00, 0x00, 0x00, 0x00, 0x00, 0x00,
  0x00, 0x00, 0x00, 0x00, 0x00, 0x00, 0x00, 0x00, 0x00, 0x00, 0x00, 0x00,
  0x00, 0x00, 0x00, 0x00, 0x00, 0x00, 0x00, 0x00, 0x00, 0x00, 0x00, 0x00,
  0x00, 0x00, 0x00, 0x00, 0x00, 0x00, 0x00, 0x00, 0x00, 0x00, 0x00, 0x00,
  0x00, 0x00, 0x00, 0x00, 0x00, 0x00, 0x00, 0x00, 0x00, 0x00, 0x00, 0x00,
  0x00, 0x00, 0x00, 0x00, 0x00, 0x00, 0x00, 0x00, 0x00, 0x00, 0x00, 0x00,
  0x00, 0x00, 0x00, 0x00, 0x00, 0x00, 0x00, 0x00, 0x00, 0x00, 0x00, 0x00,
  0x00, 0x00, 0x00, 0x00, 0x00, 0x00, 0x00, 0x00, 0x00, 0x00, 0x00, 0x00,
  0x00, 0x00, 0x00, 0x00, 0x00, 0x00, 0x00, 0x00, 0x00, 0x00, 0x00, 0x00,
  0x00, 0x00, 0x00, 0x00, 0x00, 0x00, 0x00, 0x00, 0x00, 0x00, 0x00, 0x00,
  0x00, 0x00, 0x00, 0x00, 0x00, 0x00, 0x00, 0x00, 0x00, 0x00, 0x00, 0x00,
  0x00, 0x00, 0x00, 0x00, 0x00, 0x00, 0x00, 0x00, 0x00, 0x00, 0x00, 0x00,
  0x00, 0x00, 0x00, 0x00, 0x00, 0x00, 0x00, 0x00, 0x00, 0x00, 0x00, 0x00,
  0x00, 0x00, 0x00, 0x00, 0x00, 0x00, 0x00, 0x00, 0x00, 0x00, 0x00, 0x00,
  0x00, 0x00, 0x00, 0x00, 0x00, 0x00, 0x00, 0x00, 0x00, 0x00, 0x00, 0x00,
  0x00, 0x00, 0x00, 0x00, 0x00, 0x00, 0x00, 0x00, 0x00, 0x00, 0x00, 0x00,
  0x00, 0x00, 0x00, 0x00, 0x00, 0x00, 0x00, 0x00, 0x00, 0x00, 0x00, 0x00,
  0x00, 0x00, 0x00, 0x00, 0x00, 0x00, 0x00, 0x00, 0x00, 0x00, 0x00, 0x00,
  0x20, 0x00, 0x00, 0x00, 0xfb, 0x1c, 0xd3, 0x37, 0xc0, 0xf9, 0x16, 0x38,
  0x6f, 0x21, 0x3d, 0x38, 0xbd, 0x90, 0x5a, 0x38, 0x60, 0x4c, 0x0b, 0x38,
  0x5b, 0x4f, 0x29, 0x38, 0xd1, 0x93, 0x9f, 0x37, 0x6a, 0xd3, 0x17, 0x38,
  0xc5, 0x39, 0x1d, 0x38, 0xee, 0x69, 0x24, 0x38, 0x82, 0x11, 0x17, 0x38,
  0x8c, 0x1c, 0x37, 0x38, 0xf7, 0x7d, 0x01, 0x38, 0xec, 0x11, 0x3e, 0x38,
  0x0d, 0x8a, 0x23, 0x38, 0xa8, 0x89, 0x26, 0x38, 0xec, 0x88, 0xde, 0x37,
  0x7d, 0x93, 0x0d, 0x38, 0x5a, 0xce, 0xe7, 0x37, 0xc2, 0x7e, 0x54, 0x38,
  0xa9, 0xc8, 0xc4, 0x37, 0x31, 0x22, 0x1f, 0x38, 0x83, 0x47, 0x3f, 0x38,
  0x4f, 0x23, 0x43, 0x38, 0xad, 0x2a, 0x0f, 0x38, 0x76, 0xa9, 0x2f, 0x38,
  0xdf, 0x95, 0x41, 0x38, 0xc6, 0x63, 0x79, 0x38, 0x0d, 0x43, 0x4b, 0x38,
  0x6e, 0xd2, 0xed, 0x37, 0x91, 0xa7, 0x40, 0x38, 0x8c, 0x16, 0x4f, 0x38,
  0x27, 0x00, 0x00, 0x00, 0x73, 0x65, 0x71, 0x75, 0x65, 0x6e, 0x74, 0x69,
  0x61, 0x6c, 0x2f, 0x43, 0x6f, 0x6e, 0x76, 0x31, 0x2f, 0x42, 0x69, 0x61,
  0x73, 0x41, 0x64, 0x64, 0x2f, 0x52, 0x65, 0x61, 0x64, 0x56, 0x61, 0x72,
  0x69, 0x61, 0x62, 0x6c, 0x65, 0x4f, 0x70, 0x00, 0x01, 0x00, 0x00, 0x00,
  0x20, 0x00, 0x00, 0x00, 0x9e, 0xf9, 0xff, 0xff, 0x00, 0x00, 0x00, 0x01,
  0x14, 0x00, 0x00, 0x00, 0xe4, 0x00, 0x00, 0x00, 0x0f, 0x00, 0x00, 0x00,
  0x00, 0x00, 0x00, 0x09, 0xf4, 0x00, 0x00, 0x00, 0x04, 0xf9, 0xff, 0xff,
  0x08, 0x00, 0x00, 0x00, 0x88, 0x00, 0x00, 0x00, 0x10, 0x00, 0x00, 0x00,
  0x00, 0x00, 0x00, 0x00, 0x00, 0x00, 0x00, 0x00, 0x00, 0x00, 0x00, 0x00,
  0x00, 0x00, 0x00, 0x00, 0x00, 0x00, 0x00, 0x00, 0x00, 0x00, 0x00, 0x00,
  0x00, 0x00, 0x00, 0x00, 0x00, 0x00, 0x00, 0x00, 0x00, 0x00, 0x00, 0x00,
  0x00, 0x00, 0x00, 0x00, 0x00, 0x00, 0x00, 0x00, 0x00, 0x00, 0x00, 0x00,
  0x00, 0x00, 0x00, 0x00, 0x00, 0x00, 0x00, 0x00, 0x00, 0x00, 0x00, 0x00,
  0x00, 0x00, 0x00, 0x00, 0x00, 0x00, 0x00, 0x00, 0x00, 0x00, 0x00, 0x00,
  0x00, 0x00, 0x00, 0x00, 0x00, 0x00, 0x00, 0x00, 0x00, 0x00, 0x00, 0x00,
  0x00, 0x00, 0x00, 0x00, 0x00, 0x00, 0x00, 0x00, 0x00, 0x00, 0x00, 0x00,
  0x00, 0x00, 0x00, 0x00, 0x00, 0x00, 0x00, 0x00, 0x00, 0x00, 0x00, 0x00,
  0x00, 0x00, 0x00, 0x00, 0x00, 0x00, 0x00, 0x00, 0x00, 0x00, 0x00, 0x00,
  0x00, 0x00, 0x00, 0x00, 0x00, 0x00, 0x00, 0x00, 0x10, 0x00, 0x00, 0x00,
  0xbe, 0x47, 0x91, 0x3b, 0x41, 0x88, 0x87, 0x3b, 0x7a, 0xe2, 0x91, 0x3b,
  0x6e, 0xad, 0x7a, 0x3b, 0xe6, 0xde, 0xb2, 0x3b, 0x65, 0x26, 0x66, 0x3b,
  0xbe, 0xf3, 0x87, 0x3b, 0x80, 0x63, 0xbc, 0x3b, 0xf7, 0xe3, 0x8a, 0x3b,
  0xb7, 0x3d, 0xa8, 0x3b, 0x4b, 0xe4, 0x7d, 0x3b, 0xaa, 0x65, 0x8c, 0x3b,
  0xf2, 0xe6, 0xcd, 0x3b, 0xff, 0x2f, 0xbf, 0x3b, 0xb4, 0xb2, 0x8c, 0x3b,
  0x6b, 0x8b, 0x85, 0x3b, 0x17, 0x00, 0x00, 0x00, 0x73, 0x65, 0x71, 0x75,
  0x65, 0x6e, 0x74, 0x69, 0x61, 0x6c, 0x2f, 0x43, 0x6f, 0x6e, 0x76, 0x32,
  0x2f, 0x43, 0x6f, 0x6e, 0x76, 0x32, 0x44, 0x00, 0x04, 0x00, 0x00, 0x00,
  0x10, 0x00, 0x00, 0x00, 0x02, 0x00, 0x00, 0x00, 0x01, 0x00, 0x00, 0x00,
  0x20, 0x00, 0x00, 0x00, 0xbe, 0xfa, 0xff, 0xff, 0x00, 0x00, 0x00, 0x01,
  0x14, 0x00, 0x00, 0x00, 0xe8, 0x00, 0x00, 0x00, 0x0e, 0x00, 0x00, 0x00,
  0x00, 0x00, 0x00, 0x02, 0x08, 0x01, 0x00, 0x00, 0x24, 0xfa, 0xff, 0xff,
  0x08, 0x00, 0x00, 0x00, 0x8c, 0x00, 0x00, 0x00, 0x10, 0x00, 0x00, 0x00,
  0x00, 0x00, 0x00, 0x00, 0x00, 0x00, 0x00, 0x00, 0x00, 0x00, 0x00, 0x00,
  0x00, 0x00, 0x00, 0x00, 0x00, 0x00, 0x00, 0x00, 0x00, 0x00, 0x00, 0x00,
  0x00, 0x00, 0x00, 0x00, 0x00, 0x00, 0x00, 0x00, 0x00, 0x00, 0x00, 0x00,
  0x00, 0x00, 0x00, 0x00, 0x00, 0x00, 0x00, 0x00, 0x00, 0x00, 0x00, 0x00,
  0x00, 0x00, 0x00, 0x00, 0x00, 0x00, 0x00, 0x00, 0x00, 0x00, 0x00, 0x00,
  0x00, 0x00, 0x00, 0x00, 0x00, 0x00, 0x00, 0x00, 0x00, 0x00, 0x00, 0x00,
  0x00, 0x00, 0x00, 0x00, 0x00, 0x00, 0x00, 0x00, 0x00, 0x00, 0x00, 0x00,
  0x00, 0x00, 0x00, 0x00, 0x00, 0x00, 0x00, 0x00, 0x00, 0x00, 0x00, 0x00,
  0x00, 0x00, 0x00, 0x00, 0x00, 0x00, 0x00, 0x00, 0x00, 0x00, 0x00, 0x00,
  0x00, 0x00, 0x00, 0x00, 0x00, 0x00, 0x00, 0x00, 0x00, 0x00, 0x00, 0x00,
  0x00, 0x00, 0x00, 0x00, 0x00, 0x00, 0x00, 0x00, 0x00, 0x00, 0x00, 0x00,
  0x10, 0x00, 0x00, 0x00, 0x22, 0x22, 0x52, 0x37, 0xa9, 0x08, 0x44, 0x37,
  0xf1, 0x01, 0x53, 0x37, 0x39, 0x4a, 0x35, 0x37, 0xfa, 0x5b, 0x81, 0x37,
  0xc8, 0x71, 0x26, 0x37, 0x21, 0xa4, 0x44, 0x37, 0x20, 0x3e, 0x88, 0x37,
  0x25, 0xe4, 0x48, 0x37, 0x08, 0x58, 0x73, 0x37, 0x51, 0x9d, 0x37, 0x37,
  0x05, 0x12, 0x4b, 0x37, 0x8e, 0xe8, 0x94, 0x37, 0x4c, 0x44, 0x8a, 0x37,
  0x73, 0x81, 0x4b, 0x37, 0xae, 0x28, 0x41, 0x37, 0x27, 0x00, 0x00, 0x00,
  0x73, 0x65, 0x71, 0x75, 0x65, 0x6e, 0x74, 0x69, 0x61, 0x6c, 0x2f, 0x43,
  0x6f, 0x6e, 0x76, 0x32, 0x2f, 0x42, 0x69, 0x61, 0x73, 0x41, 0x64, 0x64,
  0x2f, 0x52, 0x65, 0x61, 0x64, 0x56, 0x61, 0x72, 0x69, 0x61, 0x62, 0x6c,
  0x65, 0x4f, 0x70, 0x00, 0x01, 0x00, 0x00, 0x00, 0x10, 0x00, 0x00, 0x00,
  0xe6, 0xfb, 0xff, 0xff, 0x00, 0x00, 0x00, 0x01, 0x14, 0x00, 0x00, 0x00,
  0x34, 0x00, 0x00, 0x00, 0x0d, 0x00, 0x00, 0x00, 0x00, 0x00, 0x00, 0x09,
  0x44, 0x00, 0x00, 0x00, 0x4c, 0xfb, 0xff, 0xff, 0x08, 0x00, 0x00, 0x00,
  0x14, 0x00, 0x00, 0x00, 0x01, 0x00, 0x00, 0x00, 0x00, 0x00, 0x00, 0x00,
  0x00, 0x00, 0x00, 0x00, 0x00, 0x00, 0x00, 0x00, 0x01, 0x00, 0x00, 0x00,
  0xc7, 0xde, 0x0e, 0x3c, 0x17, 0x00, 0x00, 0x00, 0x73, 0x65, 0x71, 0x75,
  0x65, 0x6e, 0x74, 0x69, 0x61, 0x6c, 0x2f, 0x64, 0x65, 0x6e, 0x73, 0x65,
  0x2f, 0x4d, 0x61, 0x74, 0x4d, 0x75, 0x6c, 0x00, 0x02, 0x00, 0x00, 0x00,
  0x10, 0x00, 0x00, 0x00, 0x40, 0x00, 0x00, 0x00, 0x4e, 0xfc, 0xff, 0xff,
  0x00, 0x00, 0x00, 0x01, 0x14, 0x00, 0x00, 0x00, 0x30, 0x00, 0x00, 0x00,
  0x0c, 0x00, 0x00, 0x00, 0x00, 0x00, 0x00, 0x02, 0x50, 0x00, 0x00, 0x00,
  0xb4, 0xfb, 0xff, 0xff, 0x08, 0x00, 0x00, 0x00, 0x10, 0x00, 0x00, 0x00,
  0x01, 0x00, 0x00, 0x00, 0x00, 0x00, 0x00, 0x00, 0x00, 0x00, 0x00, 0x00,
  0x01, 0x00, 0x00, 0x00, 0xc0, 0xd2, 0x92, 0x38, 0x27, 0x00, 0x00, 0x00,
  0x73, 0x65, 0x71, 0x75, 0x65, 0x6e, 0x74, 0x69, 0x61, 0x6c, 0x2f, 0x64,
  0x65, 0x6e, 0x73, 0x65, 0x2f, 0x42, 0x69, 0x61, 0x73, 0x41, 0x64, 0x64,
  0x2f, 0x52, 0x65, 0x61, 0x64, 0x56, 0x61, 0x72, 0x69, 0x61, 0x62, 0x6c,
  0x65, 0x4f, 0x70, 0x00, 0x01, 0x00, 0x00, 0x00, 0x10, 0x00, 0x00, 0x00,
  0xbe, 0xfc, 0xff, 0xff, 0x00, 0x00, 0x00, 0x01, 0x14, 0x00, 0x00, 0x00,
  0x30, 0x00, 0x00, 0x00, 0x0b, 0x00, 0x00, 0x00, 0x00, 0x00, 0x00, 0x09,
  0x44, 0x00, 0x00, 0x00, 0x24, 0xfc, 0xff, 0xff, 0x08, 0x00, 0x00, 0x00,
  0x10, 0x00, 0x00, 0x00, 0x01, 0x00, 0x00, 0x00, 0x00, 0x00, 0x00, 0x00,
  0x00, 0x00, 0x00, 0x00, 0x01, 0x00, 0x00, 0x00, 0x7d, 0x95, 0x9f, 0x3c,
  0x19, 0x00, 0x00, 0x00, 0x73, 0x65, 0x71, 0x75, 0x65, 0x6e, 0x74, 0x69,
  0x61, 0x6c, 0x2f, 0x64, 0x65, 0x6e, 0x73, 0x65, 0x5f, 0x31, 0x2f, 0x4d,
  0x61, 0x74, 0x4d, 0x75, 0x6c, 0x00, 0x00, 0x00, 0x02, 0x00, 0x00, 0x00,
  0x08, 0x00, 0x00, 0x00, 0x10, 0x00, 0x00, 0x00, 0x26, 0xfd, 0xff, 0xff,
  0x00, 0x00, 0x00, 0x01, 0x14, 0x00, 0x00, 0x00, 0x34, 0x00, 0x00, 0x00,
  0x0a, 0x00, 0x00, 0x00, 0x00, 0x00, 0x00, 0x02, 0x58, 0x00, 0x00, 0x00,
  0x8c, 0xfc, 0xff, 0xff, 0x08, 0x00, 0x00, 0x00, 0x14, 0x00, 0x00, 0x00,
  0x01, 0x00, 0x00, 0x00, 0x00, 0x00, 0x00, 0x00, 0x00, 0x00, 0x00, 0x00,
  0x00, 0x00, 0x00, 0x00, 0x01, 0x00, 0x00, 0x00, 0x04, 0xf2, 0x16, 0x3a,
  0x29, 0x00, 0x00, 0x00, 0x73, 0x65, 0x71, 0x75, 0x65, 0x6e, 0x74, 0x69,
  0x61, 0x6c, 0x2f, 0x64, 0x65, 0x6e, 0x73, 0x65, 0x5f, 0x31, 0x2f, 0x42,
  0x69, 0x61, 0x73, 0x41, 0x64, 0x64, 0x2f, 0x52, 0x65, 0x61, 0x64, 0x56,
  0x61, 0x72, 0x69, 0x61, 0x62, 0x6c, 0x65, 0x4f, 0x70, 0x00, 0x00, 0x00,
  0x01, 0x00, 0x00, 0x00, 0x08, 0x00, 0x00, 0x00, 0x9e, 0xfd, 0xff, 0xff,
  0x00, 0x00, 0x00, 0x01, 0x14, 0x00, 0x00, 0x00, 0x34, 0x00, 0x00, 0x00,
  0x09, 0x00, 0x00, 0x00, 0x00, 0x00, 0x00, 0x09, 0x44, 0x00, 0x00, 0x00,
  0x04, 0xfd, 0xff, 0xff, 0x08, 0x00, 0x00, 0x00, 0x14, 0x00, 0x00, 0x00,
  0x01, 0x00, 0x00, 0x00, 0x00, 0x00, 0x00, 0x00, 0x00, 0x00, 0x00, 0x00,
  0x00, 0x00, 0x00, 0x00, 0x01, 0x00, 0x00, 0x00, 0xf4, 0x60, 0x93, 0x3b,
  0x15, 0x00, 0x00, 0x00, 0x73, 0x65, 0x71, 0x75, 0x65, 0x6e, 0x74, 0x69,
  0x61, 0x6c, 0x2f, 0x6f, 0x75, 0x74, 0x2f, 0x4d, 0x61, 0x74, 0x4d, 0x75,
  0x6c, 0x00, 0x00, 0x00, 0x02, 0x00, 0x00, 0x00, 0x01, 0x00, 0x00, 0x00,
  0x08, 0x00, 0x00, 0x00, 0x06, 0xfe, 0xff, 0xff, 0x00, 0x00, 0x00, 0x01,
  0x14, 0x00, 0x00, 0x00, 0x34, 0x00, 0x00, 0x00, 0x08, 0x00, 0x00, 0x00,
  0x00, 0x00, 0x00, 0x02, 0x54, 0x00, 0x00, 0x00, 0x6c, 0xfd, 0xff, 0xff,
  0x08, 0x00, 0x00, 0x00, 0x14, 0x00, 0x00, 0x00, 0x01, 0x00, 0x00, 0x00,
  0x00, 0x00, 0x00, 0x00, 0x00, 0x00, 0x00, 0x00, 0x00, 0x00, 0x00, 0x00,
  0x01, 0x00, 0x00, 0x00, 0x40, 0x5e, 0xaf, 0x38, 0x25, 0x00, 0x00, 0x00,
  0x73, 0x65, 0x71, 0x75, 0x65, 0x6e, 0x74, 0x69, 0x61, 0x6c, 0x2f, 0x6f,
  0x75, 0x74, 0x2f, 0x42, 0x69, 0x61, 0x73, 0x41, 0x64, 0x64, 0x2f, 0x52,
  0x65, 0x61, 0x64, 0x56, 0x61, 0x72, 0x69, 0x61, 0x62, 0x6c, 0x65, 0x4f,
  0x70, 0x00, 0x00, 0x00, 0x01, 0x00, 0x00, 0x00, 0x01, 0x00, 0x00, 0x00,
  0x7a, 0xfe, 0xff, 0xff, 0x00, 0x00, 0x00, 0x01, 0x14, 0x00, 0x00, 0x00,
  0x14, 0x00, 0x00, 0x00, 0x07, 0x00, 0x00, 0x00, 0x00, 0x00, 0x00, 0x02,
  0x28, 0x00, 0x00, 0x00, 0x64, 0xfe, 0xff, 0xff, 0x18, 0x00, 0x00, 0x00,
  0x73, 0x65, 0x71, 0x75, 0x65, 0x6e, 0x74, 0x69, 0x61, 0x6c, 0x2f, 0x66,
  0x6c, 0x61, 0x74, 0x74, 0x65, 0x6e, 0x2f, 0x43, 0x6f, 0x6e, 0x73, 0x74,
  0x00, 0x00, 0x00, 0x00, 0x01, 0x00, 0x00, 0x00, 0x02, 0x00, 0x00, 0x00,
  0xc2, 0xfe, 0xff, 0xff, 0x00, 0x00, 0x00, 0x01, 0x14, 0x00, 0x00, 0x00,
  0x14, 0x00, 0x00, 0x00, 0x03, 0x00, 0x00, 0x00, 0x00, 0x00, 0x00, 0x02,
  0x30, 0x00, 0x00, 0x00, 0xac, 0xfe, 0xff, 0xff, 0x22, 0x00, 0x00, 0x00,
  0x73, 0x65, 0x71, 0x75, 0x65, 0x6e, 0x74, 0x69, 0x61, 0x6c, 0x2f, 0x72,
  0x65, 0x73, 0x68, 0x61, 0x70, 0x65, 0x2f, 0x52, 0x65, 0x73, 0x68, 0x61,
  0x70, 0x65, 0x2f, 0x73, 0x68, 0x61, 0x70, 0x65, 0x2f, 0x33, 0x00, 0x00,
  0x00, 0x00, 0x00, 0x00, 0x0e, 0xff, 0xff, 0xff, 0x00, 0x00, 0x00, 0x01,
  0x14, 0x00, 0x00, 0x00, 0x14, 0x00, 0x00, 0x00, 0x05, 0x00, 0x00, 0x00,
  0x00, 0x00, 0x00, 0x02, 0x30, 0x00, 0x00, 0x00, 0xf8, 0xfe, 0xff, 0xff,
  0x22, 0x00, 0x00, 0x00, 0x73, 0x65, 0x71, 0x75, 0x65, 0x6e, 0x74, 0x69,
  0x61, 0x6c, 0x2f, 0x72, 0x65, 0x73, 0x68, 0x61, 0x70, 0x65, 0x2f, 0x52,
  0x65, 0x73, 0x68, 0x61, 0x70, 0x65, 0x2f, 0x73, 0x68, 0x61, 0x70, 0x65,
  0x2f, 0x32, 0x00, 0x00, 0x00, 0x00, 0x00, 0x00, 0x5a, 0xff, 0xff, 0xff,
  0x00, 0x00, 0x00, 0x01, 0x14, 0x00, 0x00, 0x00, 0x14, 0x00, 0x00, 0x00,
  0x04, 0x00, 0x00, 0x00, 0x00, 0x00, 0x00, 0x02, 0x30, 0x00, 0x00, 0x00,
  0x44, 0xff, 0xff, 0xff, 0x22, 0x00, 0x00, 0x00, 0x73, 0x65, 0x71, 0x75,
  0x65, 0x6e, 0x74, 0x69, 0x61, 0x6c, 0x2f, 0x72, 0x65, 0x73, 0x68, 0x61,
  0x70, 0x65, 0x2f, 0x52, 0x65, 0x73, 0x68, 0x61, 0x70, 0x65, 0x2f, 0x73,
  0x68, 0x61, 0x70, 0x65, 0x2f, 0x31, 0x00, 0x00, 0x00, 0x00, 0x00, 0x00,
  0xa6, 0xff, 0xff, 0xff, 0x00, 0x00, 0x00, 0x01, 0x14, 0x00, 0x00, 0x00,
  0x14, 0x00, 0x00, 0x00, 0x03, 0x00, 0x00, 0x00, 0x00, 0x00, 0x00, 0x02,
  0x38, 0x00, 0x00, 0x00, 0x90, 0xff, 0xff, 0xff, 0x28, 0x00, 0x00, 0x00,
  0x73, 0x65, 0x71, 0x75, 0x65, 0x6e, 0x74, 0x69, 0x61, 0x6c, 0x2f, 0x72,
  0x65, 0x73, 0x68, 0x61, 0x70, 0x65, 0x2f, 0x73, 0x74, 0x72, 0x69, 0x64,
  0x65, 0x64, 0x5f, 0x73, 0x6c, 0x69, 0x63, 0x65, 0x2f, 0x73, 0x74, 0x61,
  0x63, 0x6b, 0x5f, 0x31, 0x00, 0x00, 0x00, 0x00, 0x01, 0x00, 0x00, 0x00,
  0x01, 0x00, 0x00, 0x00, 0x00, 0x00, 0x16, 0x00, 0x1c, 0x00, 0x18, 0x00,
  0x17, 0x00, 0x10, 0x00, 0x0c, 0x00, 0x08, 0x00, 0x00, 0x00, 0x00, 0x00,
  0x00, 0x00, 0x07, 0x00, 0x16, 0x00, 0x00, 0x00, 0x00, 0x00, 0x00, 0x01,
  0x18, 0x00, 0x00, 0x00, 0x18, 0x00, 0x00, 0x00, 0x02, 0x00, 0x00, 0x00,
  0x00, 0x00, 0x00, 0x02, 0x38, 0x00, 0x00, 0x00, 0x04, 0x00, 0x04, 0x00,
  0x04, 0x00, 0x00, 0x00, 0x26, 0x00, 0x00, 0x00, 0x73, 0x65, 0x71, 0x75,
  0x65, 0x6e, 0x74, 0x69, 0x61, 0x6c, 0x2f, 0x72, 0x65, 0x73, 0x68, 0x61,
  0x70, 0x65, 0x2f, 0x73, 0x74, 0x72, 0x69, 0x64, 0x65, 0x64, 0x5f, 0x73,
  0x6c, 0x69, 0x63, 0x65, 0x2f, 0x73, 0x74, 0x61, 0x63, 0x6b, 0x00, 0x00,
  0x01, 0x00, 0x00, 0x00, 0x01, 0x00, 0x00, 0x00, 0x00, 0x00, 0x16, 0x00,
  0x20, 0x00, 0x1c, 0x00, 0x1b, 0x00, 0x14, 0x00, 0x10, 0x00, 0x0c, 0x00,
  0x00, 0x00, 0x00, 0x00, 0x08, 0x00, 0x07, 0x00, 0x16, 0x00, 0x00, 0x00,
  0x00, 0x00, 0x00, 0x01, 0x18, 0x00, 0x00, 0x00, 0x30, 0x00, 0x00, 0x00,
  0x4c, 0x00, 0x00, 0x00, 0x01, 0x00, 0x00, 0x00, 0x00, 0x00, 0x00, 0x09,
  0x60, 0x00, 0x00, 0x00, 0x03, 0x00, 0x00, 0x00, 0xff, 0xff, 0xff, 0xff,
  0x08, 0x00, 0x00, 0x00, 0x02, 0x00, 0x00, 0x00, 0x0c, 0x00, 0x0c, 0x00,
  0x00, 0x00, 0x00, 0x00, 0x08, 0x00, 0x04, 0x00, 0x0c, 0x00, 0x00, 0x00,
  0x08, 0x00, 0x00, 0x00, 0x10, 0x00, 0x00, 0x00, 0x01, 0x00, 0x00, 0x00,
  0x10, 0x00, 0x00, 0x00, 0x00, 0x00, 0x00, 0x00, 0x01, 0x00, 0x00, 0x00,
  0xed, 0x3e, 0x92, 0x3c, 0x19, 0x00, 0x00, 0x00, 0x73, 0x65, 0x72, 0x76,
  0x69, 0x6e, 0x67, 0x5f, 0x64, 0x65, 0x66, 0x61, 0x75, 0x6c, 0x74, 0x5f,
  0x69, 0x6e, 0x70, 0x75, 0x74, 0x5f, 0x31, 0x3a, 0x30, 0x00, 0x00, 0x00,
  0x03, 0x00, 0x00, 0x00, 0x01, 0x00, 0x00, 0x00, 0x08, 0x00, 0x00, 0x00,
  0x02, 0x00, 0x00, 0x00, 0x07, 0x00, 0x00, 0x00, 0x88, 0x00, 0x00, 0x00,
  0x6c, 0x00, 0x00, 0x00, 0x5c, 0x00, 0x00, 0x00, 0x4c, 0x00, 0x00, 0x00,
  0x38, 0x00, 0x00, 0x00, 0x18, 0x00, 0x00, 0x00, 0x04, 0x00, 0x00, 0x00,
  0xe0, 0xff, 0xff, 0xff, 0x09, 0x00, 0x00, 0x00, 0x04, 0x00, 0x00, 0x00,
  0x00, 0x00, 0x00, 0x09, 0xf0, 0xff, 0xff, 0xff, 0x11, 0x00, 0x00, 0x00,
  0x02, 0x00, 0x00, 0x00, 0x00, 0x00, 0x00, 0x11, 0x0c, 0x00, 0x10, 0x00,
  0x0f, 0x00, 0x00, 0x00, 0x08, 0x00, 0x04, 0x00, 0x0c, 0x00, 0x00, 0x00,
  0x03, 0x00, 0x00, 0x00, 0x03, 0x00, 0x00, 0x00, 0x00, 0x00, 0x00, 0x03,
  0xdc, 0xff, 0xff, 0xff, 0x16, 0x00, 0x00, 0x00, 0x00, 0x00, 0x00, 0x16,
  0xe8, 0xff, 0xff, 0xff, 0x53, 0x00, 0x00, 0x00, 0x00, 0x00, 0x00, 0x53,
  0xf4, 0xff, 0xff, 0xff, 0x2d, 0x00, 0x00, 0x00, 0x00, 0x00, 0x00, 0x2d,
  0x0c, 0x00, 0x0c, 0x00, 0x0b, 0x00, 0x00, 0x00, 0x00, 0x00, 0x04, 0x00,
  0x0c, 0x00, 0x00, 0x00, 0x4d, 0x00, 0x00, 0x00, 0x00, 0x00, 0x00, 0x4d
};
const unsigned int tflite_models_temperature_model_tflite_len = 8832;
#else
const unsigned char tflite_models_temperature_model_tflite = {};
const unsigned int tflite_models_temperature_model_tflite_len = 0;
#endif